{
  "version": "1.0",
  "truncation": {
    "direction": "Right",
    "max_length": 128,
    "strategy": "LongestFirst",
    "stride": 0
  },
  "padding": null,
  "added_tokens": [
    {
      "id": 0,
      "content": "[PAD]",
      "single_word": false,
      "lstrip": false,
      "rstrip": false,
      "normalized": false,
      "special": true
    },
    {
      "id": 1,
      "content": "[UNK]",
      "single_word": false,
      "lstrip": false,
      "rstrip": false,
      "normalized": false,
      "special": true
    },
    {
      "id": 2,
      "content": "[CLS]",
      "single_word": false,
      "lstrip": false,
      "rstrip": false,
      "normalized": false,
      "special": true
    },
    {
      "id": 3,
      "content": "[SEP]",
      "single_word": false,
      "lstrip": false,
      "rstrip": false,
      "normalized": false,
      "special": true
    },
    {
      "id": 4,
      "content": "[MASK]",
      "single_word": false,
      "lstrip": false,
      "rstrip": false,
      "normalized": false,
      "special": true
    }
  ],
  "normalizer": {
    "type": "Sequence",
    "normalizers": [
      {
        "type": "NFD"
      },
      {
        "type": "Lowercase"
      },
      {
        "type": "StripAccents"
      }
    ]
  },
  "pre_tokenizer": {
    "type": "Whitespace"
  },
  "post_processor": {
    "type": "TemplateProcessing",
    "single": [
      {
        "SpecialToken": {
          "id": "[CLS]",
          "type_id": 0
        }
      },
      {
        "Sequence": {
          "id": "A",
          "type_id": 0
        }
      },
      {
        "SpecialToken": {
          "id": "[SEP]",
          "type_id": 0
        }
      }
    ],
    "pair": [
      {
        "SpecialToken": {
          "id": "[CLS]",
          "type_id": 0
        }
      },
      {
        "Sequence": {
          "id": "A",
          "type_id": 0
        }
      },
      {
        "SpecialToken": {
          "id": "[SEP]",
          "type_id": 0
        }
      },
      {
        "Sequence": {
          "id": "B",
          "type_id": 1
        }
      },
      {
        "SpecialToken": {
          "id": "[SEP]",
          "type_id": 1
        }
      }
    ],
    "special_tokens": {
      "[CLS]": {
        "id": "[CLS]",
        "ids": [
          2
        ],
        "tokens": [
          "[CLS]"
        ]
      },
      "[SEP]": {
        "id": "[SEP]",
        "ids": [
          3
        ],
        "tokens": [
          "[SEP]"
        ]
      }
    }
  },
  "decoder": null,
  "model": {
    "type": "WordPiece",
    "unk_token": "[UNK]",
    "continuing_subword_prefix": "##",
    "max_input_chars_per_word": 100,
    "vocab": {
      "[PAD]": 0,
      "[UNK]": 1,
      "[CLS]": 2,
      "[SEP]": 3,
      "[MASK]": 4,
      "!": 5,
      "\"": 6,
      "#": 7,
      "$": 8,
      "&": 9,
      "'": 10,
      "(": 11,
      ")": 12,
      "*": 13,
      ",": 14,
      "-": 15,
      ".": 16,
      "/": 17,
      "0": 18,
      "1": 19,
      "2": 20,
      "3": 21,
      "4": 22,
      "5": 23,
      "6": 24,
      "7": 25,
      "8": 26,
      "9": 27,
      ":": 28,
      ";": 29,
      "=": 30,
      "?": 31,
      "\\": 32,
      "_": 33,
      "a": 34,
      "b": 35,
      "c": 36,
      "d": 37,
      "e": 38,
      "f": 39,
      "g": 40,
      "h": 41,
      "i": 42,
      "j": 43,
      "k": 44,
      "l": 45,
      "m": 46,
      "n": 47,
      "o": 48,
      "p": 49,
      "q": 50,
      "r": 51,
      "s": 52,
      "t": 53,
      "u": 54,
      "v": 55,
      "w": 56,
      "x": 57,
      "y": 58,
      "z": 59,
      "##o": 60,
      "##u": 61,
      "##s": 62,
      "##e": 63,
      "##d": 64,
      "##m": 65,
      "##i": 66,
      "##n": 67,
      "##a": 68,
      "##g": 69,
      "##l": 70,
      "##r": 71,
      "##c": 72,
      "##k": 73,
      "##t": 74,
      "##h": 75,
      "##p": 76,
      "##y": 77,
      "##b": 78,
      "##x": 79,
      "##v": 80,
      "##f": 81,
      "##z": 82,
      "##q": 83,
      "##w": 84,
      "##\"": 85,
      "##9": 86,
      "##7": 87,
      "##5": 88,
      "##0": 89,
      "##.": 90,
      "##2": 91,
      "##1": 92,
      "##8": 93,
      "##j": 94,
      "##3": 95,
      "##/": 96,
      "##)": 97,
      "##6": 98,
      "##-": 99,
      "##4": 100,
      "##,": 101,
      "##(": 102,
      "##&": 103,
      "##\\": 104,
      "##*": 105,
      "##$": 106,
      "##_": 107,
      "##:": 108,
      "##'": 109,
      "###": 110,
      "##er": 111,
      "th": 112,
      "##in": 113,
      "##es": 114,
      "##on": 115,
      "##or": 116,
      "the": 117,
      "##an": 118,
      "##ed": 119,
      "##ar": 120,
      "##en": 121,
      "##at": 122,
      "in": 123,
      "##al": 124,
      "##ing": 125,
      "to": 126,
      "##it": 127,
      "##ic": 128,
      "##st": 129,
      "of": 130,
      "an": 131,
      "##ro": 132,
      "##il": 133,
      "##ay": 134,
      "##ion": 135,
      "##ou": 136,
      "##as": 137,
      "##el": 138,
      "##is": 139,
      "##ec": 140,
      "##et": 141,
      "##id": 142,
      "##ter": 143,
      "##om": 144,
      "##ur": 145,
      "and": 146,
      "on": 147,
      "##ent": 148,
      "st": 149,
      "for": 150,
      "##ac": 151,
      "##re": 152,
      "re": 153,
      "##ad": 154,
      "##ts": 155,
      "##ir": 156,
      "##ol": 157,
      "##am": 158,
      "##ig": 159,
      "##ot": 160,
      "##le": 161,
      "##ers": 162,
      "##day": 163,
      "##ut": 164,
      "##ill": 165,
      "ne": 166,
      "##ve": 167,
      "39": 168,
      "##ch": 169,
      "##ow": 170,
      "ch": 171,
      "##th": 172,
      "##us": 173,
      "##ver": 174,
      "##est": 175,
      "as": 176,
      "##ra": 177,
      "com": 178,
      "##un": 179,
      "##im": 180,
      "be": 181,
      "##ation": 182,
      "##os": 183,
      "pro": 184,
      "at": 185,
      "de": 186,
      "##ly": 187,
      "##ith": 188,
      "##ak": 189,
      "is": 190,
      "pr": 191,
      "with": 192,
      "##ear": 193,
      "new": 194,
      "##ag": 195,
      "##and": 196,
      "##ess": 197,
      "sh": 198,
      "ap": 199,
      "that": 200,
      "##igh": 201,
      "wh": 202,
      "##ul": 203,
      "##ce": 204,
      "##ist": 205,
      "##oc": 206,
      "con": 207,
      "un": 208,
      "sa": 209,
      "##ld": 210,
      "af": 211,
      "qu": 212,
      "##op": 213,
      "ex": 214,
      "##oun": 215,
      "##ain": 216,
      "sp": 217,
      "##ri": 218,
      "##ks": 219,
      "se": 220,
      "its": 221,
      "le": 222,
      "##ap": 223,
      "##ters": 224,
      "##ect": 225,
      "##ast": 226,
      "pl": 227,
      "it": 228,
      "by": 229,
      "al": 230,
      "##em": 231,
      "en": 232,
      "said": 233,
      "##all": 234,
      "##ate": 235,
      "##um": 236,
      "##ian": 237,
      "comp": 238,
      "us": 239,
      "ag": 240,
      "off": 241,
      "##uters": 242,
      "##ft": 243,
      "##ia": 244,
      "has": 245,
      "##ost": 246,
      "reuters": 247,
      "was": 248,
      "##ity": 249,
      "su": 250,
      "up": 251,
      "wor": 252,
      "##ort": 253,
      "##rom": 254,
      "##ack": 255,
      "##ies": 256,
      "##ard": 257,
      "##our": 258,
      "##ust": 259,
      "from": 260,
      "##ore": 261,
      "##iv": 262,
      "will": 263,
      "##oo": 264,
      "##ial": 265,
      "##ight": 266,
      "he": 267,
      "cl": 268,
      "##00": 269,
      "##ment": 270,
      "ac": 271,
      "##ip": 272,
      "we": 273,
      "mon": 274,
      "fr": 275,
      "over": 276,
      "##art": 277,
      "##ine": 278,
      "ha": 279,
      "after": 280,
      "his": 281,
      "year": 282,
      "##ive": 283,
      "##esday": 284,
      "##ell": 285,
      "lt": 286,
      "am": 287,
      "##ob": 288,
      "##qu": 289,
      "##ens": 290,
      "##ie": 291,
      "sec": 292,
      "##uc": 293,
      "##ry": 294,
      "##ice": 295,
      "##ug": 296,
      "exp": 297,
      "gt": 298,
      "op": 299,
      "fir": 300,
      "inc": 301,
      "##oft": 302,
      "rep": 303,
      "##ere": 304,
      "##end": 305,
      "mar": 306,
      "##if": 307,
      "##are": 308,
      "##ab": 309,
      "##ge": 310,
      "##ays": 311,
      "##ould": 312,
      "##illion": 313,
      "ab": 314,
      "##up": 315,
      "res": 316,
      "int": 317,
      "have": 318,
      "tw": 319,
      "quot": 320,
      "ser": 321,
      "##any": 322,
      "##ud": 323,
      "##ace": 324,
      "out": 325,
      "##ans": 326,
      "##..": 327,
      "win": 328,
      "sc": 329,
      "\\$": 330,
      "ind": 331,
      "##ord": 332,
      "or": 333,
      "bl": 334,
      "##ub": 335,
      "##ant": 336,
      "##ick": 337,
      "##out": 338,
      "cr": 339,
      "##ond": 340,
      "##ong": 341,
      "two": 342,
      "go": 343,
      "no": 344,
      "inter": 345,
      "ar": 346,
      "co": 347,
      "their": 348,
      "##ach": 349,
      "ad": 350,
      "br": 351,
      "##ning": 352,
      "##ions": 353,
      "##ke": 354,
      "##ile": 355,
      "##ish": 356,
      "rec": 357,
      "pe": 358,
      "##ets": 359,
      "##ue": 360,
      "##ros": 361,
      "are": 362,
      "##ich": 363,
      "##ome": 364,
      "##ame": 365,
      "##ous": 366,
      "##ree": 367,
      "##ign": 368,
      "##ail": 369,
      "##ake": 370,
      "##ase": 371,
      "##ide": 372,
      "tr": 373,
      "first": 374,
      "gro": 375,
      "la": 376,
      "##own": 377,
      "world": 378,
      "##old": 379,
      "##og": 380,
      "##ock": 381,
      "but": 382,
      "more": 383,
      "per": 384,
      "dis": 385,
      "##ork": 386,
      "##arg": 387,
      "cont": 388,
      "##ime": 389,
      "bus": 390,
      "##ict": 391,
      "##ident": 392,
      "##oll": 393,
      "lead": 394,
      "fin": 395,
      "##od": 396,
      "te": 397,
      "##ass": 398,
      "again": 399,
      "##mp": 400,
      "##rop": 401,
      "##age": 402,
      "man": 403,
      "not": 404,
      "##iz": 405,
      "ira": 406,
      "##ices": 407,
      "this": 408,
      "pres": 409,
      "can": 410,
      "##ite": 411,
      "app": 412,
      "company": 413,
      "iraq": 414,
      "##ors": 415,
      "##ber": 416,
      "than": 417,
      "--": 418,
      "200": 419,
      "cor": 420,
      "##ff": 421,
      "##amp": 422,
      "##ech": 423,
      "##urn": 424,
      "##ester": 425,
      "##iday": 426,
      "##act": 427,
      "eu": 428,
      "million": 429,
      "##one": 430,
      "##urs": 431,
      "##ations": 432,
      "##ek": 433,
      "##ep": 434,
      "fl": 435,
      "inv": 436,
      "one": 437,
      "##mer": 438,
      "##ory": 439,
      "el": 440,
      "acc": 441,
      "monday": 442,
      "intern": 443,
      "##ates": 444,
      "##ure": 445,
      "##ound": 446,
      "##ade": 447,
      "min": 448,
      "rel": 449,
      "tu": 450,
      "##ount": 451,
      "president": 452,
      "tuesday": 453,
      "dec": 454,
      "##av": 455,
      "##ary": 456,
      "sun": 457,
      "##earch": 458,
      "##ull": 459,
      "bo": 460,
      "ban": 461,
      "hel": 462,
      "mo": 463,
      "mic": 464,
      "##edn": 465,
      "##ash": 466,
      "##ose": 467,
      "ear": 468,
      "ann": 469,
      "against": 470,
      "wedn": 471,
      "##ited": 472,
      "wednesday": 473,
      "high": 474,
      "##und": 475,
      "all": 476,
      "friday": 477,
      "ph": 478,
      "prof": 479,
      "corp": 480,
      "##man": 481,
      "thurs": 482,
      "##ence": 483,
      "##ther": 484,
      "secur": 485,
      "mark": 486,
      "thursday": 487,
      "pol": 488,
      "##ton": 489,
      "##ational": 490,
      "play": 491,
      "into": 492,
      "##her": 493,
      "##ican": 494,
      "bu": 495,
      "mil": 496,
      "ret": 497,
      "##anc": 498,
      "offic": 499,
      "report": 500,
      "micros": 501,
      "##der": 502,
      ";/": 503,
      "oil": 504,
      "##ib": 505,
      "kill": 506,
      "war": 507,
      "##etw": 508,
      "##oss": 509,
      "def": 510,
      "peop": 511,
      "##ated": 512,
      "about": 513,
      "des": 514,
      "att": 515,
      "serv": 516,
      "##ven": 517,
      "##gh": 518,
      "who": 519,
      "last": 520,
      "##ey": 521,
      "##xt": 522,
      "were": 523,
      "##eral": 524,
      "##ased": 525,
      "##iss": 526,
      "so": 527,
      "##vel": 528,
      "they": 529,
      "york": 530,
      "microsoft": 531,
      "##ocks": 532,
      "sup": 533,
      "##ood": 534,
      "li": 535,
      "tech": 536,
      "##duc": 537,
      "##az": 538,
      "##ged": 539,
      "##les": 540,
      "##yst": 541,
      "week": 542,
      "##ason": 543,
      "##ounc": 544,
      "security": 545,
      "official": 546,
      "bro": 547,
      "says": 548,
      "end": 549,
      "month": 550,
      "mak": 551,
      "team": 552,
      "game": 553,
      "yester": 554,
      "##ance": 555,
      "invest": 556,
      "yesterday": 557,
      "car": 558,
      "##ware": 559,
      "three": 560,
      "next": 561,
      "air": 562,
      "set": 563,
      "cons": 564,
      "amer": 565,
      "part": 566,
      "##hing": 567,
      "##als": 568,
      "##ected": 569,
      "back": 570,
      "may": 571,
      "##ting": 572,
      "##tion": 573,
      "##wn": 574,
      "##cent": 575,
      "##ition": 576,
      "been": 577,
      "when": 578,
      "had": 579,
      "jo": 580,
      "ma": 581,
      "sl": 582,
      "sat": 583,
      "time": 584,
      "##its": 585,
      "united": 586,
      "sunday": 587,
      "...": 588,
      "open": 589,
      "gover": 590,
      "me": 591,
      "sou": 592,
      "sur": 593,
      "str": 594,
      "plan": 595,
      "##rope": 596,
      "europe": 597,
      "sal": 598,
      "##arter": 599,
      "could": 600,
      "govern": 601,
      "down": 602,
      "##ix": 603,
      "##ical": 604,
      "##ely": 605,
      "ass": 606,
      "news": 607,
      "##gr": 608,
      "##land": 609,
      "##orts": 610,
      "afp": 611,
      "milit": 612,
      "##atch": 613,
      "##reat": 614,
      "elect": 615,
      "prices": 616,
      "quarter": 617,
      "##ook": 618,
      "comm": 619,
      "percent": 620,
      "cap": 621,
      "pre": 622,
      "would": 623,
      "##tle": 624,
      "##ise": 625,
      "stocks": 626,
      "red": 627,
      "ter": 628,
      "##line": 629,
      "##co": 630,
      "fed": 631,
      "par": 632,
      "shar": 633,
      "gen": 634,
      "##ote": 635,
      "##ubl": 636,
      "##ire": 637,
      "##enc": 638,
      "four": 639,
      "reg": 640,
      "##olog": 641,
      "##oy": 642,
      "##for": 643,
      "##uss": 644,
      "group": 645,
      "10": 646,
      "count": 647,
      "record": 648,
      "##con": 649,
      "government": 650,
      "mus": 651,
      "vict": 652,
      "##ah": 653,
      "##ina": 654,
      "eng": 655,
      "work": 656,
      "rele": 657,
      "##ines": 658,
      "##ecut": 659,
      "##ists": 660,
      "second": 661,
      "people": 662,
      "full": 663,
      "nor": 664,
      "##ath": 665,
      "##ugh": 666,
      "announc": 667,
      "##ier": 668,
      "##ral": 669,
      "##els": 670,
      "##able": 671,
      "sw": 672,
      "bank": 673,
      "sch": 674,
      "soft": 675,
      "##iness": 676,
      "##ating": 677,
      "deal": 678,
      "which": 679,
      "today": 680,
      "brit": 681,
      "long": 682,
      "search": 683,
      "produc": 684,
      "pal": 685,
      "##ics": 686,
      "del": 687,
      "med": 688,
      "night": 689,
      "run": 690,
      "tal": 691,
      "##ital": 692,
      "software": 693,
      "fe": 694,
      "imp": 695,
      "top": 696,
      "##omb": 697,
      "##ief": 698,
      "##ystem": 699,
      "##ower": 700,
      "##unch": 701,
      "business": 702,
      "gl": 703,
      "some": 704,
      "##ient": 705,
      "##pt": 706,
      "state": 707,
      "##ird": 708,
      "bar": 709,
      "post": 710,
      "##ran": 711,
      "billion": 712,
      "##io": 713,
      "##hip": 714,
      "minist": 715,
      "market": 716,
      "say": 717,
      "tri": 718,
      "season": 719,
      "law": 720,
      "buy": 721,
      "announced": 722,
      "bec": 723,
      "dr": 724,
      "take": 725,
      "##air": 726,
      "bush": 727,
      "internet": 728,
      "techn": 729,
      "##ough": 730,
      "##ement": 731,
      "gian": 732,
      "##ild": 733,
      "##ards": 734,
      "years": 735,
      "help": 736,
      "##ual": 737,
      "##ger": 738,
      "##ct": 739,
      "##ph": 740,
      "near": 741,
      "launch": 742,
      "##int": 743,
      "##ings": 744,
      "##urday": 745,
      "former": 746,
      "dem": 747,
      "web": 748,
      "saturday": 749,
      "econ": 750,
      "##ball": 751,
      "##ica": 752,
      "chief": 753,
      "##ims": 754,
      "washing": 755,
      "econom": 756,
      "aust": 757,
      "col": 758,
      "day": 759,
      "jap": 760,
      "##ms": 761,
      "##ied": 762,
      "##ony": 763,
      "champ": 764,
      "aw": 765,
      "call": 766,
      "do": 767,
      "gu": 768,
      "kn": 769,
      "sign": 770,
      "you": 771,
      "##ult": 772,
      "agre": 773,
      "japan": 774,
      "system": 775,
      "tak": 776,
      "##istan": 777,
      "under": 778,
      "sm": 779,
      "targ": 780,
      "##ved": 781,
      "##quote": 782,
      "supp": 783,
      "fullquote": 784,
      "washington": 785,
      "##cess": 786,
      "third": 787,
      "##ones": 788,
      "rem": 789,
      "head": 790,
      "sales": 791,
      "gr": 792,
      "most": 793,
      "##ron": 794,
      "##ows": 795,
      "profit": 796,
      "=\"": 797,
      "get": 798,
      "ra": 799,
      "##su": 800,
      "##ble": 801,
      "##enn": 802,
      "##ames": 803,
      "conf": 804,
      "bid": 805,
      "big": 806,
      "bomb": 807,
      "other": 808,
      "po": 809,
      "##led": 810,
      "international": 811,
      "victory": 812,
      "technolog": 813,
      "netw": 814,
      "##ins": 815,
      "##ision": 816,
      "##uring": 817,
      "stri": 818,
      "start": 819,
      "china": 820,
      "south": 821,
      "minister": 822,
      "lin": 823,
      "inj": 824,
      "ste": 825,
      "cour": 826,
      "det": 827,
      "just": 828,
      "##uter": 829,
      "execut": 830,
      "final": 831,
      "killed": 832,
      "home": 833,
      "job": 834,
      "##ious": 835,
      "##cer": 836,
      "##inian": 837,
      "##orn": 838,
      "##ures": 839,
      "##lear": 840,
      "service": 841,
      "ca": 842,
      "fall": 843,
      "tra": 844,
      "##uts": 845,
      "##bs": 846,
      "##ants": 847,
      "ins": 848,
      "plans": 849,
      "upd": 850,
      "manag": 851,
      "maj": 852,
      "terr": 853,
      "city": 854,
      "mob": 855,
      "sus": 856,
      "tro": 857,
      "##he": 858,
      "##estinian": 859,
      "american": 860,
      "palestinian": 861,
      "bel": 862,
      "now": 863,
      "##ee": 864,
      "##iam": 865,
      "##rael": 866,
      "israel": 867,
      "##app": 868,
      "2004": 869,
      "reported": 870,
      "officials": 871,
      "hand": 872,
      "##ont": 873,
      "##ange": 874,
      "ant": 875,
      "grow": 876,
      "major": 877,
      "000": 878,
      "cent": 879,
      "##een": 880,
      "chip": 881,
      "press": 882,
      "oper": 883,
      "talks": 884,
      "ev": 885,
      "hop": 886,
      "russ": 887,
      "##ys": 888,
      "aut": 889,
      "host": 890,
      "if": 891,
      "lat": 892,
      "larg": 893,
      "miss": 894,
      "##uch": 895,
      "##ner": 896,
      "##pos": 897,
      "##eless": 898,
      "what": 899,
      "##ense": 900,
      "return": 901,
      "##velop": 902,
      "federal": 903,
      ";..": 904,
      "mer": 905,
      "##gle": 906,
      "##ves": 907,
      "##.&": 908,
      "thro": 909,
      "##ents": 910,
      "reb": 911,
      "##other": 912,
      "beg": 913,
      "target": 914,
      "susp": 915,
      ";...&": 916,
      "five": 917,
      "hal": 918,
      "made": 919,
      "national": 920,
      "##ured": 921,
      "online": 922,
      "##acks": 923,
      "develop": 924,
      "india": 925,
      "indust": 926,
      "##ency": 927,
      "cup": 928,
      "look": 929,
      "old": 930,
      "vi": 931,
      "wal": 932,
      "wir": 933,
      "##fl": 934,
      "##ince": 935,
      "star": 936,
      "dep": 937,
      "##ague": 938,
      "research": 939,
      "european": 940,
      "austral": 941,
      "technology": 942,
      "bag": 943,
      "dat": 944,
      "em": 945,
      "fil": 946,
      "pay": 947,
      "tel": 948,
      "##rican": 949,
      "computer": 950,
      "##ives": 951,
      "expected": 952,
      "coach": 953,
      "accord": 954,
      "ed": 955,
      "loss": 956,
      "publ": 957,
      "##ium": 958,
      "##be": 959,
      "##ving": 960,
      "stre": 961,
      "##use": 962,
      "offer": 963,
      "adv": 964,
      "##ollar": 965,
      "country": 966,
      "wireless": 967,
      "ara": 968,
      "bat": 969,
      "dollar": 970,
      "fo": 971,
      "goo": 972,
      "pak": 973,
      "another": 974,
      "show": 975,
      "space": 976,
      "wind": 977,
      "add": 978,
      "general": 979,
      "19": 980,
      "11": 981,
      "san": 982,
      "##ges": 983,
      "##lud": 984,
      "##bm": 985,
      "##ons": 986,
      "##ities": 987,
      "##eld": 988,
      "league": 989,
      "##ump": 990,
      "##ouse": 991,
      "court": 992,
      "update": 993,
      "pakistan": 994,
      "her": 995,
      "way": 996,
      "##ned": 997,
      "##ling": 998,
      "##pr": 999,
      "stock": 1000,
      "leader": 1001,
      "network": 1002,
      "mobile": 1003,
      "largest": 1004,
      "pass": 1005,
      "ro": 1006,
      "test": 1007,
      "##hn": 1008,
      "ang": 1009,
      "states": 1010,
      "beat": 1011,
      "prov": 1012,
      "according": 1013,
      "bill": 1014,
      "im": 1015,
      "put": 1016,
      "tit": 1017,
      "##ool": 1018,
      "##hd": 1019,
      "##itch": 1020,
      "##ops": 1021,
      "amp": 1022,
      "contro": 1023,
      "canad": 1024,
      "move": 1025,
      "terror": 1026,
      "based": 1027,
      "eff": 1028,
      "ger": 1029,
      "mot": 1030,
      "pat": 1031,
      "tick": 1032,
      "##eb": 1033,
      "##eep": 1034,
      "##lin": 1035,
      "##let": 1036,
      "##ces": 1037,
      "##ted": 1038,
      "##ank": 1039,
      "##round": 1040,
      "##isco": 1041,
      "series": 1042,
      "early": 1043,
      "maker": 1044,
      "military": 1045,
      "\"&": 1046,
      "betw": 1047,
      "ever": 1048,
      "him": 1049,
      "own": 1050,
      "pc": 1051,
      "ver": 1052,
      "won": 1053,
      "##ky": 1054,
      "##vers": 1055,
      "##fo": 1056,
      "##ese": 1057,
      "them": 1058,
      "##alif": 1059,
      "prot": 1060,
      "least": 1061,
      "##ember": 1062,
      "incre": 1063,
      "drug": 1064,
      "baghd": 1065,
      "data": 1066,
      "google": 1067,
      "between": 1068,
      "baghdad": 1069,
      "cust": 1070,
      "nas": 1071,
      "##ok": 1072,
      "##ty": 1073,
      "there": 1074,
      "##ects": 1075,
      "being": 1076,
      "cla": 1077,
      "expl": 1078,
      "includ": 1079,
      "attack": 1080,
      "like": 1081,
      "john": 1082,
      "election": 1083,
      "##form": 1084,
      "north": 1085,
      "giant": 1086,
      "hol": 1087,
      "los": 1088,
      "net": 1089,
      "rock": 1090,
      "##ract": 1091,
      "##ful": 1092,
      "##ising": 1093,
      "dead": 1094,
      "use": 1095,
      "arr": 1096,
      "appro": 1097,
      "british": 1098,
      "20": 1099,
      "cost": 1100,
      "games": 1101,
      "hit": 1102,
      "hear": 1103,
      "hold": 1104,
      "oct": 1105,
      "##tt": 1106,
      "quick": 1107,
      "##thern": 1108,
      "##ible": 1109,
      "15": 1110,
      "gre": 1111,
      "make": 1112,
      "##eks": 1113,
      "##gy": 1114,
      "##fore": 1115,
      "##ility": 1116,
      "before": 1117,
      "dev": 1118,
      "##ular": 1119,
      "ext": 1120,
      "music": 1121,
      "champions": 1122,
      "##head": 1123,
      "12": 1124,
      "iran": 1125,
      "ibm": 1126,
      "sen": 1127,
      "wr": 1128,
      "##anies": 1129,
      "progr": 1130,
      "while": 1131,
      "union": 1132,
      "companies": 1133,
      "contin": 1134,
      "meet": 1135,
      "custom": 1136,
      "camp": 1137,
      "dri": 1138,
      "fund": 1139,
      "har": 1140,
      "hur": 1141,
      "how": 1142,
      "west": 1143,
      "##tain": 1144,
      "##per": 1145,
      "##par": 1146,
      "##ison": 1147,
      "##ury": 1148,
      "char": 1149,
      "##iew": 1150,
      "arm": 1151,
      "police": 1152,
      "released": 1153,
      "ticker": 1154,
      "found": 1155,
      "gaz": 1156,
      "ta": 1157,
      "vir": 1158,
      "only": 1159,
      "stor": 1160,
      "still": 1161,
      "##ands": 1162,
      "share": 1163,
      "leg": 1164,
      "enter": 1165,
      "franc": 1166,
      "peace": 1167,
      "av": 1168,
      "dra": 1169,
      "days": 1170,
      "mid": 1171,
      "riv": 1172,
      "sold": 1173,
      "##ov": 1174,
      "##over": 1175,
      "##se": 1176,
      "stud": 1177,
      "##ution": 1178,
      "prime": 1179,
      "services": 1180,
      "shares": 1181,
      "through": 1182,
      "bet": 1183,
      "base": 1184,
      "lond": 1185,
      "sy": 1186,
      "##ots": 1187,
      "##down": 1188,
      "##66": 1189,
      "any": 1190,
      "form": 1191,
      "##ights": 1192,
      "alle": 1193,
      "clos": 1194,
      "##ize": 1195,
      "london": 1196,
      "foll": 1197,
      "htt": 1198,
      "many": 1199,
      "round": 1200,
      "ww": 1201,
      "##ux": 1202,
      "##son": 1203,
      "##aw": 1204,
      "##loy": 1205,
      "##cl": 1206,
      "##fat": 1207,
      "##ene": 1208,
      "##ication": 1209,
      "##ider": 1210,
      "rev": 1211,
      "##ush": 1212,
      "##ages": 1213,
      "spe": 1214,
      "left": 1215,
      "acqu": 1216,
      "strong": 1217,
      "latest": 1218,
      "http": 1219,
      "www": 1220,
      ":/": 1221,
      "dav": 1222,
      "even": 1223,
      "power": 1224,
      "rad": 1225,
      "uk": 1226,
      "##ield": 1227,
      "##rup": 1228,
      "step": 1229,
      "real": 1230,
      "reach": 1231,
      "asp": 1232,
      "sept": 1233,
      "##ober": 1234,
      "phone": 1235,
      "consum": 1236,
      "://": 1237,
      "14": 1238,
      "ath": 1239,
      "around": 1240,
      "gold": 1241,
      "hre": 1242,
      "house": 1243,
      "mc": 1244,
      "sell": 1245,
      "since": 1246,
      "turn": 1247,
      "vis": 1248,
      "##ped": 1249,
      "##ang": 1250,
      "##ism": 1251,
      "##acle": 1252,
      "##rew": 1253,
      "players": 1254,
      "investor": 1255,
      "executive": 1256,
      "growth": 1257,
      "arafat": 1258,
      "gaza": 1259,
      "follow": 1260,
      "href": 1261,
      "13": 1262,
      "cut": 1263,
      "dir": 1264,
      "during": 1265,
      "fight": 1266,
      "free": 1267,
      "id": 1268,
      "kore": 1269,
      "low": 1270,
      "vide": 1271,
      "##dan": 1272,
      "stand": 1273,
      "price": 1274,
      "should": 1275,
      "##ains": 1276,
      "sports": 1277,
      "act": 1278,
      "##ending": 1279,
      "scient": 1280,
      "school": 1281,
      "bra": 1282,
      "dou": 1283,
      "lower": 1284,
      "pack": 1285,
      "sing": 1286,
      "sol": 1287,
      "##king": 1288,
      "threat": 1289,
      "##ints": 1290,
      "need": 1291,
      "death": 1292,
      "sever": 1293,
      "oracle": 1294,
      "##ross": 1295,
      "trad": 1296,
      "higher": 1297,
      "months": 1298,
      "industry": 1299,
      "drop": 1300,
      "hom": 1301,
      "oly": 1302,
      "port": 1303,
      "poss": 1304,
      "six": 1305,
      "tur": 1306,
      "##uel": 1307,
      "##com": 1308,
      "##ject": 1309,
      "##ind": 1310,
      "##elf": 1311,
      "##aces": 1312,
      "ago": 1313,
      "boost": 1314,
      "release": 1315,
      "foot": 1316,
      "olymp": 1317,
      "care": 1318,
      "num": 1319,
      "tim": 1320,
      "your": 1321,
      "##ior": 1322,
      "##ne": 1323,
      "##ave": 1324,
      "##ham": 1325,
      "##pite": 1326,
      "##erry": 1327,
      "##ats": 1328,
      "##ators": 1329,
      "##ises": 1330,
      "##rem": 1331,
      "##ady": 1332,
      "##ley": 1333,
      "deb": 1334,
      "##oci": 1335,
      "spec": 1336,
      "users": 1337,
      "suc": 1338,
      "firm": 1339,
      "##ends": 1340,
      "held": 1341,
      "region": 1342,
      "economy": 1343,
      "agreed": 1344,
      "half": 1345,
      "windows": 1346,
      "program": 1347,
      "dist": 1348,
      "key": 1349,
      "keep": 1350,
      "rest": 1351,
      "sour": 1352,
      "sony": 1353,
      "##bers": 1354,
      "##enter": 1355,
      "##alth": 1356,
      "##obal": 1357,
      "despite": 1358,
      "broad": 1359,
      "england": 1360,
      "insur": 1361,
      "arrest": 1362,
      "customers": 1363,
      ".,": 1364,
      "36": 1365,
      "=/": 1366,
      "lif": 1367,
      "past": 1368,
      "rul": 1369,
      "##med": 1370,
      "##iers": 1371,
      "##info": 1372,
      "##iting": 1373,
      "##ised": 1374,
      "##acy": 1375,
      "scor": 1376,
      "iraqi": 1377,
      "retail": 1378,
      "peoples": 1379,
      "australia": 1380,
      "quickinfo": 1381,
      "aspx": 1382,
      "bot": 1383,
      "dig": 1384,
      "hard": 1385,
      "ip": 1386,
      "led": 1387,
      "mor": 1388,
      "mem": 1389,
      "pers": 1390,
      "site": 1391,
      "vers": 1392,
      "wom": 1393,
      "##gest": 1394,
      "prom": 1395,
      "spr": 1396,
      "agency": 1397,
      "trade": 1398,
      "global": 1399,
      "public": 1400,
      "championship": 1401,
      "peoplesoft": 1402,
      "bas": 1403,
      "bow": 1404,
      "nuc": 1405,
      "##eign": 1406,
      "##way": 1407,
      "inst": 1408,
      "##ily": 1409,
      "##idn": 1410,
      "##iger": 1411,
      "##ession": 1412,
      "##ivers": 1413,
      "club": 1414,
      "contract": 1415,
      "2005": 1416,
      "commiss": 1417,
      "nearly": 1418,
      "systems": 1419,
      "support": 1420,
      "troops": 1421,
      "video": 1422,
      "25": 1423,
      "ber": 1424,
      "dom": 1425,
      "fam": 1426,
      "kerry": 1427,
      "lab": 1428,
      "pos": 1429,
      "rose": 1430,
      "##ration": 1431,
      "##hold": 1432,
      "##put": 1433,
      "process": 1434,
      "##ago": 1435,
      "crit": 1436,
      "polic": 1437,
      "associ": 1438,
      "points": 1439,
      "injured": 1440,
      "jobs": 1441,
      "viol": 1442,
      "angel": 1443,
      "control": 1444,
      "october": 1445,
      "nuclear": 1446,
      "commission": 1447,
      "ahead": 1448,
      "emp": 1449,
      "less": 1450,
      "try": 1451,
      "##ike": 1452,
      "##ying": 1453,
      "##ications": 1454,
      "##used": 1455,
      "##imed": 1456,
      "##ocr": 1457,
      "ener": 1458,
      "exper": 1459,
      "##ished": 1460,
      "##ized": 1461,
      "appl": 1462,
      "defense": 1463,
      "prev": 1464,
      "israeli": 1465,
      "street": 1466,
      "hurrican": 1467,
      "direct": 1468,
      "race": 1469,
      "watch": 1470,
      "##onal": 1471,
      "touch": 1472,
      "##ether": 1473,
      "foreign": 1474,
      "chic": 1475,
      "chall": 1476,
      "charg": 1477,
      "saf": 1478,
      "quest": 1479,
      "weeks": 1480,
      "##que": 1481,
      "##nings": 1482,
      "killing": 1483,
      "america": 1484,
      "britain": 1485,
      "grand": 1486,
      "linux": 1487,
      "anti": 1488,
      "russia": 1489,
      "scientists": 1490,
      "challen": 1491,
      "18": 1492,
      "aug": 1493,
      "cy": 1494,
      "cre": 1495,
      "dar": 1496,
      "equ": 1497,
      "gra": 1498,
      "good": 1499,
      "line": 1500,
      "sent": 1501,
      "soc": 1502,
      "##oid": 1503,
      "##so": 1504,
      "##ev": 1505,
      "##min": 1506,
      "##ik": 1507,
      "##ners": 1508,
      "##back": 1509,
      "##ws": 1510,
      "##ator": 1511,
      "##ida": 1512,
      "chr": 1513,
      "where": 1514,
      "quote": 1515,
      "board": 1516,
      "polit": 1517,
      "build": 1518,
      "lik": 1519,
      "demand": 1520,
      "democr": 1521,
      "continu": 1522,
      "success": 1523,
      "energy": 1524,
      "cam": 1525,
      "case": 1526,
      "fut": 1527,
      "face": 1528,
      "fire": 1529,
      "main": 1530,
      "mich": 1531,
      "pa": 1532,
      "pop": 1533,
      "ve": 1534,
      "wall": 1535,
      "well": 1536,
      "yan": 1537,
      "##ret": 1538,
      "##ker": 1539,
      "##ites": 1540,
      "stra": 1541,
      "##veil": 1542,
      "unveil": 1543,
      "##ries": 1544,
      "##aster": 1545,
      "sudan": 1546,
      "reports": 1547,
      "##iff": 1548,
      "indian": 1549,
      "disc": 1550,
      "corpor": 1551,
      "design": 1552,
      "economic": 1553,
      "every": 1554,
      "korea": 1555,
      "football": 1556,
      "angeles": 1557,
      "chicago": 1558,
      "card": 1559,
      "cell": 1560,
      "hot": 1561,
      "men": 1562,
      "match": 1563,
      "val": 1564,
      "##da": 1565,
      "##gan": 1566,
      "##port": 1567,
      "##van": 1568,
      "inf": 1569,
      "##ally": 1570,
      "##ecast": 1571,
      "##ential": 1572,
      "##thers": 1573,
      "propos": 1574,
      "exch": 1575,
      "##iving": 1576,
      "close": 1577,
      "##artment": 1578,
      "crash": 1579,
      "desk": 1580,
      "sox": 1581,
      "militants": 1582,
      "engine": 1583,
      "taking": 1584,
      "central": 1585,
      "title": 1586,
      "including": 1587,
      "tax": 1588,
      "baseball": 1589,
      "radio": 1590,
      "several": 1591,
      "bay": 1592,
      "calif": 1593,
      "far": 1594,
      "field": 1595,
      "ham": 1596,
      "hum": 1597,
      "jun": 1598,
      "lo": 1599,
      "mal": 1600,
      "ur": 1601,
      "##sh": 1602,
      "##ns": 1603,
      "##ness": 1604,
      "##ai": 1605,
      "##ging": 1606,
      "##ler": 1607,
      "##pe": 1608,
      "##fact": 1609,
      "##ered": 1610,
      "##ench": 1611,
      "##row": 1612,
      "come": 1613,
      "issu": 1614,
      "##aper": 1615,
      "office": 1616,
      "health": 1617,
      "nov": 1618,
      "leaders": 1619,
      "financ": 1620,
      "apple": 1621,
      "flor": 1622,
      "attacks": 1623,
      "called": 1624,
      "emb": 1625,
      "german": 1626,
      "life": 1627,
      "digital": 1628,
      "deskt": 1629,
      "ce": 1630,
      "clear": 1631,
      "fell": 1632,
      "ms": 1633,
      "my": 1634,
      "mess": 1635,
      "mass": 1636,
      "nation": 1637,
      "right": 1638,
      "sk": 1639,
      "tenn": 1640,
      "vo": 1641,
      "want": 1642,
      "##mber": 1643,
      "##ause": 1644,
      "##lo": 1645,
      "##lier": 1646,
      "##ta": 1647,
      "##ward": 1648,
      "toky": 1649,
      "stop": 1650,
      "reven": 1651,
      "##vember": 1652,
      "##ears": 1653,
      "concer": 1654,
      "see": 1655,
      "##ape": 1656,
      "##ended": 1657,
      "##ude": 1658,
      "winning": 1659,
      "november": 1660,
      "recent": 1661,
      "access": 1662,
      "presidential": 1663,
      "earth": 1664,
      "investig": 1665,
      "because": 1666,
      "launched": 1667,
      "department": 1668,
      "##prise": 1669,
      "francisco": 1670,
      "##rupt": 1671,
      "consumer": 1672,
      "version": 1673,
      "tokyo": 1674,
      "30": 1675,
      "ast": 1676,
      "cur": 1677,
      "center": 1678,
      "es": 1679,
      "fail": 1680,
      "great": 1681,
      "ir": 1682,
      "mail": 1683,
      "much": 1684,
      "outs": 1685,
      "##uk": 1686,
      "##uj": 1687,
      "##gers": 1688,
      "##pl": 1689,
      "##att": 1690,
      "anal": 1691,
      "##chester": 1692,
      "commer": 1693,
      "##imb": 1694,
      "proble": 1695,
      "priv": 1696,
      "without": 1697,
      "shot": 1698,
      "ital": 1699,
      "compet": 1700,
      "across": 1701,
      "france": 1702,
      "##uct": 1703,
      "republ": 1704,
      "intel": 1705,
      "blast": 1706,
      "##ody": 1707,
      "phil": 1708,
      "player": 1709,
      "super": 1710,
      "capital": 1711,
      "media": 1712,
      "japanese": 1713,
      "russian": 1714,
      "auth": 1715,
      "battle": 1716,
      "rival": 1717,
      "september": 1718,
      "following": 1719,
      "employ": 1720,
      "likely": 1721,
      "florida": 1722,
      ";&": 1723,
      "jud": 1724,
      "lit": 1725,
      "list": 1726,
      "nine": 1727,
      "pur": 1728,
      "sn": 1729,
      "tv": 1730,
      "##off": 1731,
      "##ming": 1732,
      "##af": 1733,
      "##ael": 1734,
      "##red": 1735,
      "##ked": 1736,
      "##by": 1737,
      "##atic": 1738,
      "##ative": 1739,
      "inform": 1740,
      "##itt": 1741,
      "forecast": 1742,
      "ref": 1743,
      "beh": 1744,
      "she": 1745,
      "afr": 1746,
      "spam": 1747,
      "##ection": 1748,
      "used": 1749,
      "##ensive": 1750,
      "secret": 1751,
      "oppos": 1752,
      "wins": 1753,
      "black": 1754,
      "rece": 1755,
      "profile": 1756,
      "making": 1757,
      "consider": 1758,
      "southern": 1759,
      "electron": 1760,
      "prepar": 1761,
      "giants": 1762,
      "away": 1763,
      "agreement": 1764,
      "strike": 1765,
      "management": 1766,
      "hope": 1767,
      "canadian": 1768,
      "increase": 1769,
      "green": 1770,
      "better": 1771,
      "speed": 1772,
      "athens": 1773,
      "hurricane": 1774,
      "16": 1775,
      "21": 1776,
      "coll": 1777,
      "met": 1778,
      "mos": 1779,
      "mort": 1780,
      "nets": 1781,
      "nations": 1782,
      "pil": 1783,
      "rise": 1784,
      "##ex": 1785,
      "##eal": 1786,
      "##iver": 1787,
      "##aign": 1788,
      "##go": 1789,
      "##ll": 1790,
      "##ress": 1791,
      "##esh": 1792,
      "##ena": 1793,
      "##eng": 1794,
      "forces": 1795,
      "univers": 1796,
      "##rial": 1797,
      "seven": 1798,
      "##aps": 1799,
      "also": 1800,
      "subs": 1801,
      "##ooks": 1802,
      "find": 1803,
      "manchester": 1804,
      "decision": 1805,
      "commun": 1806,
      "manager": 1807,
      "canada": 1808,
      "possible": 1809,
      "number": 1810,
      "exchange": 1811,
      "desktop": 1812,
      "africa": 1813,
      "cash": 1814,
      "div": 1815,
      "eight": 1816,
      "ge": 1817,
      "gm": 1818,
      "hour": 1819,
      "poll": 1820,
      "pitch": 1821,
      "rich": 1822,
      "rates": 1823,
      "rank": 1824,
      "xp": 1825,
      "##ny": 1826,
      "##cy": 1827,
      "##cri": 1828,
      "##ping": 1829,
      "##ink": 1830,
      "##ests": 1831,
      "##ater": 1832,
      "##ather": 1833,
      "took": 1834,
      "##ston": 1835,
      "##ided": 1836,
      "##reak": 1837,
      "##adr": 1838,
      "##ams": 1839,
      "neg": 1840,
      "short": 1841,
      "alm": 1842,
      "complet": 1843,
      "offers": 1844,
      "such": 1845,
      "french": 1846,
      "repl": 1847,
      "##onds": 1848,
      "bring": 1849,
      "leading": 1850,
      "musl": 1851,
      "trial": 1852,
      "signed": 1853,
      "begin": 1854,
      "nasa": 1855,
      "campaign": 1856,
      "both": 1857,
      "violence": 1858,
      "touchdown": 1859,
      "christ": 1860,
      "information": 1861,
      "17": 1862,
      "35": 1863,
      "dan": 1864,
      "fra": 1865,
      "food": 1866,
      "hou": 1867,
      "lar": 1868,
      "loc": 1869,
      "mount": 1870,
      "ob": 1871,
      "pot": 1872,
      "ty": 1873,
      "ut": 1874,
      "##ides": 1875,
      "##ole": 1876,
      "##ott": 1877,
      "##ults": 1878,
      "african": 1879,
      "reser": 1880,
      "##kees": 1881,
      "trans": 1882,
      "earlier": 1883,
      "profits": 1884,
      "workers": 1885,
      "products": 1886,
      "impro": 1887,
      "lawsu": 1888,
      "takes": 1889,
      "rebels": 1890,
      "##ova": 1891,
      "alleged": 1892,
      "doub": 1893,
      "career": 1894,
      "source": 1895,
      "arrested": 1896,
      "policy": 1897,
      "yankees": 1898,
      "ceo": 1899,
      "analyst": 1900,
      "little": 1901,
      "houston": 1902,
      "bob": 1903,
      "cle": 1904,
      "cub": 1905,
      "dod": 1906,
      "jump": 1907,
      "niger": 1908,
      "tre": 1909,
      "##uce": 1910,
      "##ea": 1911,
      "##fur": 1912,
      "##erence": 1913,
      "##inals": 1914,
      "##itive": 1915,
      "##ases": 1916,
      "stake": 1917,
      "##raft": 1918,
      "pros": 1919,
      "shut": 1920,
      "whether": 1921,
      "seem": 1922,
      "using": 1923,
      "expect": 1924,
      "cred": 1925,
      "tex": 1926,
      "settle": 1927,
      "party": 1928,
      "paris": 1929,
      "small": 1930,
      "remain": 1931,
      "biggest": 1932,
      "belie": 1933,
      "hostage": 1934,
      "activ": 1935,
      "bowl": 1936,
      "author": 1937,
      "cisco": 1938,
      "don": 1939,
      "ey": 1940,
      "fif": 1941,
      "gets": 1942,
      "mart": 1943,
      "mult": 1944,
      "os": 1945,
      "ry": 1946,
      "sil": 1947,
      "sim": 1948,
      "sum": 1949,
      "##de": 1950,
      "##lant": 1951,
      "##lines": 1952,
      "##enal": 1953,
      "##ale": 1954,
      "prison": 1955,
      "##ounce": 1956,
      "william": 1957,
      "##ments": 1958,
      "amid": 1959,
      "blue": 1960,
      "coast": 1961,
      "earnings": 1962,
      "makes": 1963,
      "sharp": 1964,
      "regul": 1965,
      "bankrupt": 1966,
      "product": 1967,
      "few": 1968,
      "detail": 1969,
      "road": 1970,
      "heart": 1971,
      "drive": 1972,
      "study": 1973,
      "olympic": 1974,
      "michael": 1975,
      "straight": 1976,
      "judge": 1977,
      "50": 1978,
      "aid": 1979,
      "ball": 1980,
      "counc": 1981,
      "doc": 1982,
      "est": 1983,
      "emer": 1984,
      "fact": 1985,
      "fuel": 1986,
      "hist": 1987,
      "here": 1988,
      "king": 1989,
      "kash": 1990,
      "lou": 1991,
      "lim": 1992,
      "mac": 1993,
      "might": 1994,
      "ok": 1995,
      "ple": 1996,
      "pull": 1997,
      "push": 1998,
      "rally": 1999,
      "tor": 2000,
      "vot": 2001,
      "wound": 2002,
      "wild": 2003,
      "##eat": 2004,
      "##mir": 2005,
      "##ij": 2006,
      "##ience": 2007,
      "##ney": 2008,
      "##cc": 2009,
      "##ket": 2010,
      "##til": 2011,
      "##bur": 2012,
      "##ining": 2013,
      "##ately": 2014,
      "infl": 2015,
      "tour": 2016,
      "##eck": 2017,
      "##ired": 2018,
      "##ama": 2019,
      "##oti": 2020,
      "chan": 2021,
      "##osp": 2022,
      "##aker": 2023,
      "##istration": 2024,
      "unit": 2025,
      "aff": 2026,
      "seek": 2027,
      "level": 2028,
      "worth": 2029,
      "action": 2030,
      "among": 2031,
      "##ension": 2032,
      "##ability": 2033,
      "results": 2034,
      "interest": 2035,
      "admin": 2036,
      "euro": 2037,
      "running": 2038,
      "conference": 2039,
      "meeting": 2040,
      "army": 2041,
      "sharehold": 2042,
      "soldiers": 2043,
      "david": 2044,
      "visit": 2045,
      "times": 2046,
      "##reme": 2047,
      "scored": 2048,
      "morning": 2049,
      "challenge": 2050,
      "darfur": 2051,
      "financial": 2052,
      "##load": 2053,
      "negoti": 2054,
      "almost": 2055,
      "council": 2056,
      "kashmir": 2057,
      "best": 2058,
      "bost": 2059,
      "dam": 2060,
      "due": 2061,
      "er": 2062,
      "foc": 2063,
      "fans": 2064,
      "mod": 2065,
      "pit": 2066,
      "treat": 2067,
      "##cast": 2068,
      "thous": 2069,
      "##ars": 2070,
      "##ened": 2071,
      "##idence": 2072,
      "##ention": 2073,
      "che": 2074,
      "chair": 2075,
      "white": 2076,
      "until": 2077,
      "afgh": 2078,
      "place": 2079,
      "clin": 2080,
      "##uction": 2081,
      "resp": 2082,
      "indones": 2083,
      "order": 2084,
      "crude": 2085,
      "##asser": 2086,
      "invol": 2087,
      "phones": 2088,
      "term": 2089,
      "fourth": 2090,
      "northern": 2091,
      "medical": 2092,
      "champion": 2093,
      "chips": 2094,
      "operating": 2095,
      "hopes": 2096,
      "motor": 2097,
      "claims": 2098,
      "holiday": 2099,
      "family": 2100,
      "critic": 2101,
      "august": 2102,
      "human": 2103,
      "tennis": 2104,
      "williams": 2105,
      "boston": 2106,
      "cel": 2107,
      "font": 2108,
      "got": 2109,
      "gains": 2110,
      "hosp": 2111,
      "ju": 2112,
      "jones": 2113,
      "nl": 2114,
      "others": 2115,
      "pan": 2116,
      "qa": 2117,
      "yet": 2118,
      "yards": 2119,
      "##ef": 2120,
      "##ees": 2121,
      "##gin": 2122,
      "##lam": 2123,
      "##less": 2124,
      "##bit": 2125,
      "##ert": 2126,
      "though": 2127,
      "##inal": 2128,
      "##lex": 2129,
      "##ute": 2130,
      "##utch": 2131,
      "child": 2132,
      "islam": 2133,
      "conv": 2134,
      "qualif": 2135,
      "enough": 2136,
      "##umb": 2137,
      "##ified": 2138,
      "intro": 2139,
      "block": 2140,
      "going": 2141,
      "ground": 2142,
      "##icted": 2143,
      "box": 2144,
      "investors": 2145,
      "download": 2146,
      "delay": 2147,
      "takeover": 2148,
      "calls": 2149,
      "operations": 2150,
      "mission": 2151,
      "merger": 2152,
      "australian": 2153,
      "advanc": 2154,
      "legal": 2155,
      "ipod": 2156,
      "political": 2157,
      "corporate": 2158,
      "californ": 2159,
      "revenue": 2160,
      "outside": 2161,
      "university": 2162,
      "reserve": 2163,
      "texas": 2164,
      "thousands": 2165,
      "afghan": 2166,
      "aimed": 2167,
      "bonds": 2168,
      "cast": 2169,
      "cuts": 2170,
      "diff": 2171,
      "hun": 2172,
      "let": 2173,
      "mach": 2174,
      "rights": 2175,
      "sir": 2176,
      "youn": 2177,
      "yasser": 2178,
      "##lad": 2179,
      "##hic": 2180,
      "##bc": 2181,
      "##band": 2182,
      "##zil": 2183,
      "##ways": 2184,
      "those": 2185,
      "##ined": 2186,
      "##orks": 2187,
      "##ecom": 2188,
      "probe": 2189,
      "within": 2190,
      "shop": 2191,
      "seen": 2192,
      "env": 2193,
      "##ourn": 2194,
      "class": 2195,
      "##ific": 2196,
      "##order": 2197,
      "organ": 2198,
      "disput": 2199,
      "account": 2200,
      "markets": 2201,
      "weekend": 2202,
      "investment": 2203,
      "quarterly": 2204,
      "working": 2205,
      "feat": 2206,
      "barr": 2207,
      "posted": 2208,
      "##ually": 2209,
      "steel": 2210,
      "germ": 2211,
      "motors": 2212,
      "explos": 2213,
      "rocket": 2214,
      "costs": 2215,
      "151": 2216,
      "brazil": 2217,
      "women": 2218,
      "soccer": 2219,
      "future": 2220,
      "fraud": 2221,
      "potential": 2222,
      "administration": 2223,
      "22": 2224,
      "civ": 2225,
      "eas": 2226,
      "east": 2227,
      "each": 2228,
      "give": 2229,
      "hen": 2230,
      "hits": 2231,
      "je": 2232,
      "jan": 2233,
      "jav": 2234,
      "ko": 2235,
      "kidn": 2236,
      "land": 2237,
      "late": 2238,
      "lost": 2239,
      "mag": 2240,
      "mike": 2241,
      "si": 2242,
      "##eration": 2243,
      "too": 2244,
      "tom": 2245,
      "##icks": 2246,
      "##str": 2247,
      "store": 2248,
      "##ream": 2249,
      "##rap": 2250,
      "project": 2251,
      "spy": 2252,
      "sem": 2253,
      "leav": 2254,
      "sub": 2255,
      "##iven": 2256,
      "##uck": 2257,
      "opt": 2258,
      "server": 2259,
      "##key": 2260,
      "##estern": 2261,
      "accused": 2262,
      "bang": 2263,
      "soon": 2264,
      "sale": 2265,
      "##gress": 2266,
      "prem": 2267,
      "##cover": 2268,
      "saying": 2269,
      "color": 2270,
      "known": 2271,
      "getting": 2272,
      "executives": 2273,
      "finally": 2274,
      "falluj": 2275,
      "merc": 2276,
      "rebel": 2277,
      "began": 2278,
      "telev": 2279,
      "telecom": 2280,
      "controvers": 2281,
      "avail": 2282,
      "fighting": 2283,
      "special": 2284,
      "insurg": 2285,
      "application": 2286,
      "republic": 2287,
      "opposition": 2288,
      "local": 2289,
      "analysts": 2290,
      "fifth": 2291,
      "bankruptcy": 2292,
      "details": 2293,
      "germany": 2294,
      "civil": 2295,
      ").": 2296,
      "),": 2297,
      ".\\": 2298,
      "29": 2299,
      "23": 2300,
      "bur": 2301,
      "cand": 2302,
      "fur": 2303,
      "fac": 2304,
      "faces": 2305,
      "hp": 2306,
      "happ": 2307,
      "lock": 2308,
      "looks": 2309,
      "must": 2310,
      "miam": 2311,
      "nfl": 2312,
      "pir": 2313,
      "pict": 2314,
      "ris": 2315,
      "rout": 2316,
      "vol": 2317,
      "wants": 2318,
      "##dle": 2319,
      "##ban": 2320,
      "##arm": 2321,
      "##ared": 2322,
      "##itness": 2323,
      "##ster": 2324,
      "##roit": 2325,
      "##olf": 2326,
      "##amed": 2327,
      "chines": 2328,
      "##agu": 2329,
      "##ula": 2330,
      "##ria": 2331,
      "ent": 2332,
      "sug": 2333,
      "##ugg": 2334,
      "scand": 2335,
      "blood": 2336,
      "allow": 2337,
      "brown": 2338,
      "teams": 2339,
      "airlines": 2340,
      "opening": 2341,
      "surve": 2342,
      "##ught": 2343,
      "production": 2344,
      "become": 2345,
      "award": 2346,
      "detroit": 2347,
      "palestinians": 2348,
      "##onto": 2349,
      "event": 2350,
      "approach": 2351,
      "vehic": 2352,
      "geor": 2353,
      "dodgers": 2354,
      "toronto": 2355,
      "focus": 2356,
      "california": 2357,
      "miami": 2358,
      "chinese": 2359,
      "27": 2360,
      "26": 2361,
      "500": 2362,
      "cal": 2363,
      "cop": 2364,
      "dow": 2365,
      "dutch": 2366,
      "fix": 2367,
      "gain": 2368,
      "ku": 2369,
      "name": 2370,
      "rom": 2371,
      "row": 2372,
      "roll": 2373,
      "roy": 2374,
      "rising": 2375,
      "yah": 2376,
      "##oint": 2377,
      "##den": 2378,
      "##mo": 2379,
      "##mar": 2380,
      "##iest": 2381,
      "##res": 2382,
      "##ren": 2383,
      "##han": 2384,
      "##br": 2385,
      "##wh": 2386,
      "##ona": 2387,
      "town": 2388,
      "##icip": 2389,
      "##ille": 2390,
      "##isition": 2391,
      "##omet": 2392,
      "##ented": 2393,
      "stad": 2394,
      "##olution": 2395,
      "cho": 2396,
      "##verage": 2397,
      "##akers": 2398,
      "shi": 2399,
      "spending": 2400,
      "##rier": 2401,
      "seat": 2402,
      "computers": 2403,
      "suff": 2404,
      "ltd": 2405,
      "intell": 2406,
      "crim": 2407,
      "##ization": 2408,
      "decl": 2409,
      "moon": 2410,
      "announce": 2411,
      "kills": 2412,
      "airline": 2413,
      "capt": 2414,
      "sched": 2415,
      "helped": 2416,
      "does": 2417,
      "showed": 2418,
      "storm": 2419,
      "restr": 2420,
      "question": 2421,
      "concerns": 2422,
      "purch": 2423,
      "behind": 2424,
      "secretary": 2425,
      "electronic": 2426,
      "pilots": 2427,
      "ryder": 2428,
      "chairman": 2429,
      "hospital": 2430,
      "kidnapp": 2431,
      "television": 2432,
      "yahoo": 2433,
      "stadium": 2434,
      "24": 2435,
      "bin": 2436,
      "bri": 2437,
      "body": 2438,
      "border": 2439,
      "dv": 2440,
      "den": 2441,
      "did": 2442,
      "died": 2443,
      "hat": 2444,
      "hug": 2445,
      "il": 2446,
      "journ": 2447,
      "mets": 2448,
      "penn": 2449,
      "rap": 2450,
      "witness": 2451,
      "##set": 2452,
      "##sue": 2453,
      "##ds": 2454,
      "##no": 2455,
      "##gage": 2456,
      "##bi": 2457,
      "##bed": 2458,
      "##val": 2459,
      "##vet": 2460,
      "##50": 2461,
      "##ering": 2462,
      "##orters": 2463,
      "tool": 2464,
      "told": 2465,
      "##eland": 2466,
      "station": 2467,
      "force": 2468,
      "ready": 2469,
      "##ota": 2470,
      "never": 2471,
      "comb": 2472,
      "deep": 2473,
      "issue": 2474,
      "shr": 2475,
      "cond": 2476,
      "##ived": 2477,
      "hew": 2478,
      "climb": 2479,
      "##ips": 2480,
      "money": 2481,
      "front": 2482,
      "expand": 2483,
      "abo": 2484,
      "blair": 2485,
      "##icket": 2486,
      "cricket": 2487,
      "track": 2488,
      "perfor": 2489,
      "millions": 2490,
      "boe": 2491,
      "profession": 2492,
      "officer": 2493,
      "warned": 2494,
      "partners": 2495,
      "captain": 2496,
      "businesses": 2497,
      "strip": 2498,
      "injury": 2499,
      "autom": 2500,
      "filed": 2501,
      "offering": 2502,
      "dollars": 2503,
      "devices": 2504,
      "senate": 2505,
      "senior": 2506,
      "virus": 2507,
      "virgin": 2508,
      "enterprise": 2509,
      "closer": 2510,
      "acquisition": 2511,
      "ident": 2512,
      "trading": 2513,
      "personal": 2514,
      "woman": 2515,
      "domin": 2516,
      "labor": 2517,
      "charges": 2518,
      "discuss": 2519,
      "commerce": 2520,
      "louis": 2521,
      "java": 2522,
      "candid": 2523,
      "dvd": 2524,
      "performan": 2525,
      "40": 2526,
      "400": 2527,
      "\\\\": 2528,
      "bad": 2529,
      "break": 2530,
      "cas": 2531,
      "cbs": 2532,
      "didn": 2533,
      "gas": 2534,
      "gates": 2535,
      "hims": 2536,
      "mut": 2537,
      "mill": 2538,
      "rate": 2539,
      "sets": 2540,
      "same": 2541,
      "vill": 2542,
      "##mas": 2543,
      "##iw": 2544,
      "##ga": 2545,
      "##ric": 2546,
      "##kins": 2547,
      "##pal": 2548,
      "##yl": 2549,
      "##yle": 2550,
      "##bo": 2551,
      "##xic": 2552,
      "##we": 2553,
      "##wards": 2554,
      "##ino": 2555,
      "##ories": 2556,
      "##eda": 2557,
      "##ety": 2558,
      "##iders": 2559,
      "##oming": 2560,
      "##ural": 2561,
      "once": 2562,
      "reve": 2563,
      "requ": 2564,
      "atlant": 2565,
      "##akes": 2566,
      "withd": 2567,
      "conn": 2568,
      "spot": 2569,
      "seed": 2570,
      "seeks": 2571,
      "##ians": 2572,
      "suit": 2573,
      "weap": 2574,
      "overt": 2575,
      "amaz": 2576,
      "##ender": 2577,
      "resign": 2578,
      "ars": 2579,
      "code": 2580,
      "discover": 2581,
      "decided": 2582,
      "annual": 2583,
      "warning": 2584,
      "attem": 2585,
      "ending": 2586,
      "satell": 2587,
      "planned": 2588,
      "##ically": 2589,
      "militant": 2590,
      "delta": 2591,
      "know": 2592,
      "supply": 2593,
      "point": 2594,
      "traff": 2595,
      "travel": 2596,
      "growing": 2597,
      "suspected": 2598,
      "streak": 2599,
      "terrorism": 2600,
      "nasda": 2601,
      "claim": 2602,
      "device": 2603,
      "avoid": 2604,
      "draw": 2605,
      "alleg": 2606,
      "##awi": 2607,
      "review": 2608,
      "##onald": 2609,
      "create": 2610,
      "building": 2611,
      "popular": 2612,
      "unveiled": 2613,
      "curr": 2614,
      "esc": 2615,
      "division": 2616,
      "hours": 2617,
      "christmas": 2618,
      "prosecut": 2619,
      "credit": 2620,
      "regulators": 2621,
      "history": 2622,
      "celeb": 2623,
      "qaeda": 2624,
      "young": 2625,
      "accounting": 2626,
      "scandal": 2627,
      "survey": 2628,
      "george": 2629,
      "boeing": 2630,
      "performance": 2631,
      "himself": 2632,
      "nasdaq": 2633,
      "):": 2634,
      "bi": 2635,
      "coun": 2636,
      "da": 2637,
      "dip": 2638,
      "file": 2639,
      "gun": 2640,
      "given": 2641,
      "golf": 2642,
      "jer": 2643,
      "jets": 2644,
      "ru": 2645,
      "rac": 2646,
      "rob": 2647,
      "vent": 2648,
      "vote": 2649,
      "western": 2650,
      "##oot": 2651,
      "##ues": 2652,
      "##mit": 2653,
      "##aff": 2654,
      "##rac": 2655,
      "##te": 2656,
      "##inc": 2657,
      "##ana": 2658,
      "##atory": 2659,
      "init": 2660,
      "inning": 2661,
      "##aled": 2662,
      "##ilt": 2663,
      "##iding": 2664,
      "ford": 2665,
      "##ready": 2666,
      "##ades": 2667,
      "##tsbur": 2668,
      "##ament": 2669,
      "change": 2670,
      "##imate": 2671,
      "island": 2672,
      "##cept": 2673,
      "sees": 2674,
      "itself": 2675,
      "##ector": 2676,
      "already": 2677,
      "##emb": 2678,
      "fired": 2679,
      "resc": 2680,
      "goal": 2681,
      "brows": 2682,
      "ended": 2683,
      "quarterback": 2684,
      "switch": 2685,
      "trip": 2686,
      "taken": 2687,
      "starting": 2688,
      "developer": 2689,
      "industrial": 2690,
      "added": 2691,
      "effort": 2692,
      "protect": 2693,
      "drugs": 2694,
      "middle": 2695,
      "davis": 2696,
      "double": 2697,
      "rules": 2698,
      "members": 2699,
      "association": 2700,
      "trying": 2701,
      "designed": 2702,
      "proposal": 2703,
      "problem": 2704,
      "italy": 2705,
      "##ength": 2706,
      "muslim": 2707,
      "large": 2708,
      "pittsbur": 2709,
      "respons": 2710,
      "controversial": 2711,
      "withdra": 2712,
      "arsenal": 2713,
      "satellite": 2714,
      "pittsburgh": 2715,
      "28": 2716,
      "bal": 2717,
      "bud": 2718,
      "cit": 2719,
      "cou": 2720,
      "came": 2721,
      "fer": 2722,
      "fri": 2723,
      "fast": 2724,
      "gree": 2725,
      "giving": 2726,
      "ivan": 2727,
      "jail": 2728,
      "lic": 2729,
      "lad": 2730,
      "log": 2731,
      "mom": 2732,
      "nh": 2733,
      "oak": 2734,
      "pain": 2735,
      "range": 2736,
      "role": 2737,
      "son": 2738,
      "squ": 2739,
      "ts": 2740,
      "wid": 2741,
      "wood": 2742,
      "yuk": 2743,
      "##ufact": 2744,
      "##nes": 2745,
      "##get": 2746,
      "##lt": 2747,
      "##liam": 2748,
      "##rich": 2749,
      "##come": 2750,
      "##ba": 2751,
      "##bes": 2752,
      "##ford": 2753,
      "##wide": 2754,
      "thin": 2755,
      "##ann": 2756,
      "##ening": 2757,
      "toward": 2758,
      "toll": 2759,
      "##itions": 2760,
      "##icans": 2761,
      "##iles": 2762,
      "##isis": 2763,
      "##aced": 2764,
      "##read": 2765,
      "rej": 2766,
      "chile": 2767,
      "pred": 2768,
      "prix": 2769,
      "##aged": 2770,
      "sha": 2771,
      "spain": 2772,
      "cler": 2773,
      "client": 2774,
      "##ipment": 2775,
      "fresh": 2776,
      "firms": 2777,
      "scre": 2778,
      "science": 2779,
      "##icked": 2780,
      "crisis": 2781,
      "recover": 2782,
      "area": 2783,
      "dism": 2784,
      "disapp": 2785,
      "content": 2786,
      "finance": 2787,
      "manufact": 2788,
      "2006": 2789,
      "##oney": 2790,
      "supreme": 2791,
      "lift": 2792,
      "surged": 2793,
      "planning": 2794,
      "newsp": 2795,
      "elections": 2796,
      "parliam": 2797,
      "countries": 2798,
      "records": 2799,
      "buying": 2800,
      "launches": 2801,
      "colle": 2802,
      "knock": 2803,
      "raise": 2804,
      "stars": 2805,
      "effect": 2806,
      "patri": 2807,
      "harm": 2808,
      "rivals": 2809,
      "##enez": 2810,
      "acquire": 2811,
      "consumers": 2812,
      "athlet": 2813,
      "broadband": 2814,
      "insurance": 2815,
      "sprint": 2816,
      "basket": 2817,
      "position": 2818,
      "previous": 2819,
      "continued": 2820,
      "paul": 2821,
      "issues": 2822,
      "competition": 2823,
      "mortgage": 2824,
      "islamic": 2825,
      "explosion": 2826,
      "spyware": 2827,
      "criminal": 2828,
      "journal": 2829,
      "oakland": 2830,
      "yukos": 2831,
      "34": 2832,
      ";,": 2833,
      "aim": 2834,
      "ari": 2835,
      "burn": 2836,
      "bull": 2837,
      "boss": 2838,
      "dell": 2839,
      "fa": 2840,
      "fre": 2841,
      "fig": 2842,
      "fun": 2843,
      "fly": 2844,
      "gam": 2845,
      "gave": 2846,
      "hy": 2847,
      "hill": 2848,
      "hall": 2849,
      "kh": 2850,
      "lu": 2851,
      "light": 2852,
      "mix": 2853,
      "nys": 2854,
      "occ": 2855,
      "pun": 2856,
      "rog": 2857,
      "side": 2858,
      "size": 2859,
      "sites": 2860,
      "tem": 2861,
      "##uation": 2862,
      "##uff": 2863,
      "##ss": 2864,
      "##men": 2865,
      "##mun": 2866,
      "##aa": 2867,
      "##ait": 2868,
      "##la": 2869,
      "##ced": 2870,
      "##to": 2871,
      "##ps": 2872,
      "##yn": 2873,
      "##ya": 2874,
      "##wood": 2875,
      "##ery": 2876,
      "thail": 2877,
      "##onment": 2878,
      "##icide": 2879,
      "##ece": 2880,
      "##eth": 2881,
      "##ids": 2882,
      "stay": 2883,
      "stage": 2884,
      "##leg": 2885,
      "chart": 2886,
      "##though": 2887,
      "asia": 2888,
      "beating": 2889,
      "pract": 2890,
      "##eared": 2891,
      "separ": 2892,
      "plot": 2893,
      "enron": 2894,
      "compl": 2895,
      "offensive": 2896,
      "worst": 2897,
      "clash": 2898,
      "mont": 2899,
      "abu": 2900,
      "able": 2901,
      "nok": 2902,
      "arch": 2903,
      "arri": 2904,
      "flash": 2905,
      "mov": 2906,
      "moved": 2907,
      "defeat": 2908,
      "join": 2909,
      "surge": 2910,
      "newsfact": 2911,
      "##encies": 2912,
      "groups": 2913,
      "medal": 2914,
      "signs": 2915,
      "targets": 2916,
      "confir": 2917,
      "bombing": 2918,
      "networks": 2919,
      "insp": 2920,
      "missing": 2921,
      "looking": 2922,
      "walk": 2923,
      "film": 2924,
      "files": 2925,
      "published": 2926,
      "passes": 2927,
      "protest": 2928,
      "losing": 2929,
      "continue": 2930,
      "turned": 2931,
      "singh": 2932,
      "turkey": 2933,
      "olympics": 2934,
      "experts": 2935,
      "issued": 2936,
      "massive": 2937,
      "problems": 2938,
      "private": 2939,
      "subsid": 2940,
      "utah": 2941,
      "lawsuit": 2942,
      "nigeria": 2943,
      "authorities": 2944,
      "sharply": 2945,
      "plead": 2946,
      "shareholders": 2947,
      "treatment": 2948,
      "indonesia": 2949,
      "panel": 2950,
      "children": 2951,
      "machines": 2952,
      "dispute": 2953,
      "available": 2954,
      "further": 2955,
      "intellig": 2956,
      "weapons": 2957,
      "browser": 2958,
      "newspaper": 2959,
      "parliament": 2960,
      "thailand": 2961,
      "newsfactor": 2962,
      ".\"": 2963,
      "60": 2964,
      "600": 2965,
      "aims": 2966,
      "average": 2967,
      "bell": 2968,
      "citing": 2969,
      "crow": 2970,
      "fav": 2971,
      "nat": 2972,
      "our": 2973,
      "overs": 2974,
      "pow": 2975,
      "pace": 2976,
      "patch": 2977,
      "ring": 2978,
      "rub": 2979,
      "ster": 2980,
      "sant": 2981,
      "vac": 2982,
      "view": 2983,
      "water": 2984,
      "##eg": 2985,
      "##ded": 2986,
      "##duce": 2987,
      "##nel": 2988,
      "##aj": 2989,
      "##ring": 2990,
      "##cel": 2991,
      "##pon": 2992,
      "##bn": 2993,
      "##bor": 2994,
      "##ville": 2995,
      "##fi": 2996,
      "##wal": 2997,
      "##erent": 2998,
      "then": 2999,
      "##ane": 3000,
      "tourn": 3001,
      "tough": 3002,
      "##elph": 3003,
      "##eter": 3004,
      "stat": 3005,
      "##adow": 3006,
      "##ironment": 3007,
      "nepal": 3008,
      "##using": 3009,
      "##ung": 3010,
      "##aging": 3011,
      "why": 3012,
      "##ceed": 3013,
      "spok": 3014,
      "##rib": 3015,
      "plun": 3016,
      "although": 3017,
      "##ume": 3018,
      "##umble": 3019,
      "##iance": 3020,
      "##acked": 3021,
      "heav": 3022,
      "weak": 3023,
      "weigh": 3024,
      "express": 3025,
      "march": 3026,
      "##ably": 3027,
      "resident": 3028,
      "outl": 3029,
      "output": 3030,
      "discl": 3031,
      "leads": 3032,
      "thanks": 3033,
      "flu": 3034,
      "flights": 3035,
      "decade": 3036,
      "decline": 3037,
      "december": 3038,
      "phot": 3039,
      "miles": 3040,
      "nextel": 3041,
      "americans": 3042,
      "slow": 3043,
      "slight": 3044,
      "surv": 3045,
      "surprise": 3046,
      "strate": 3047,
      "strength": 3048,
      "victims": 3049,
      "posts": 3050,
      "became": 3051,
      "awa": 3052,
      "guil": 3053,
      "guard": 3054,
      "smith": 3055,
      "raised": 3056,
      "justice": 3057,
      "hands": 3058,
      "auto": 3059,
      "hostages": 3060,
      "suspended": 3061,
      "199": 3062,
      "passed": 3063,
      "image": 3064,
      "pcs": 3065,
      "increased": 3066,
      "charl": 3067,
      "stores": 3068,
      "soldier": 3069,
      "reached": 3070,
      "standard": 3071,
      "retailer": 3072,
      "equipment": 3073,
      "continues": 3074,
      "camer": 3075,
      "cardinals": 3076,
      "proposed": 3077,
      "urged": 3078,
      "msn": 3079,
      "employees": 3080,
      "prepared": 3081,
      "richard": 3082,
      "touchdowns": 3083,
      "improve": 3084,
      "introduc": 3085,
      "advanced": 3086,
      "afghanistan": 3087,
      "different": 3088,
      "siri": 3089,
      "environment": 3090,
      "barrel": 3091,
      "seattle": 3092,
      "above": 3093,
      "venture": 3094,
      "greek": 3095,
      "nhl": 3096,
      "basketball": 3097,
      "nyse": 3098,
      "nokia": 3099,
      "##elphia": 3100,
      "100": 3101,
      ";-": 3102,
      "aud": 3103,
      "alex": 3104,
      "bit": 3105,
      "cer": 3106,
      "cing": 3107,
      "dol": 3108,
      "dream": 3109,
      "era": 3110,
      "fears": 3111,
      "gri": 3112,
      "gives": 3113,
      "lay": 3114,
      "lear": 3115,
      "mw": 3116,
      "mel": 3117,
      "mur": 3118,
      "named": 3119,
      "pip": 3120,
      "pair": 3121,
      "ray": 3122,
      "ram": 3123,
      "rain": 3124,
      "rod": 3125,
      "sens": 3126,
      "send": 3127,
      "ton": 3128,
      "tie": 3129,
      "tests": 3130,
      "uran": 3131,
      "wel": 3132,
      "went": 3133,
      "##uit": 3134,
      "##uary": 3135,
      "##egr": 3136,
      "##ax": 3137,
      "##lish": 3138,
      "##ris": 3139,
      "##cal": 3140,
      "##cow": 3141,
      "##cial": 3142,
      "##ken": 3143,
      "##tors": 3144,
      "##tles": 3145,
      "##yc": 3146,
      "##inth": 3147,
      "theft": 3148,
      "##itz": 3149,
      "##icit": 3150,
      "##asing": 3151,
      "story": 3152,
      "staff": 3153,
      "reject": 3154,
      "##irl": 3155,
      "##ires": 3156,
      "chels": 3157,
      "##ushing": 3158,
      "##vert": 3159,
      "asian": 3160,
      "coming": 3161,
      "prize": 3162,
      "##ander": 3163,
      "ship": 3164,
      "congress": 3165,
      "unions": 3166,
      "quit": 3167,
      "sex": 3168,
      "pled": 3169,
      "enc": 3170,
      "enrich": 3171,
      "suicide": 3172,
      "##uster": 3173,
      "having": 3174,
      "option": 3175,
      "crack": 3176,
      "disney": 3177,
      "##assin": 3178,
      "##izes": 3179,
      "##ept": 3180,
      "flight": 3181,
      "minute": 3182,
      "minnes": 3183,
      "playoff": 3184,
      "saturn": 3185,
      "mexic": 3186,
      "strugg": 3187,
      "plane": 3188,
      "assemb": 3189,
      "reduc": 3190,
      "parts": 3191,
      "sharon": 3192,
      "##forms": 3193,
      "county": 3194,
      "engines": 3195,
      "english": 3196,
      "sweep": 3197,
      "import": 3198,
      "lawy": 3199,
      "doz": 3200,
      "detain": 3201,
      "training": 3202,
      "troubl": 3203,
      "belg": 3204,
      "pressure": 3205,
      "later": 3206,
      "begins": 3207,
      "wales": 3208,
      "losses": 3209,
      "provide": 3210,
      "immed": 3211,
      "efforts": 3212,
      "patient": 3213,
      "claimed": 3214,
      "explod": 3215,
      "holds": 3216,
      "charge": 3217,
      "draft": 3218,
      "beta": 3219,
      "formula": 3220,
      "##angu": 3221,
      "packers": 3222,
      "needed": 3223,
      "sources": 3224,
      "ruling": 3225,
      "memory": 3226,
      "positive": 3227,
      "preview": 3228,
      "questions": 3229,
      "social": 3230,
      "democratic": 3231,
      "unveils": 3232,
      "hotel": 3233,
      "june": 3234,
      "earthqu": 3235,
      "astros": 3236,
      "##attled": 3237,
      "commercial": 3238,
      "italian": 3239,
      "moscow": 3240,
      "subscri": 3241,
      "communications": 3242,
      "lawsuits": 3243,
      "expectations": 3244,
      "july": 3245,
      "shopping": 3246,
      "leaving": 3247,
      "fallujah": 3248,
      "merck": 3249,
      "risk": 3250,
      "brief": 3251,
      "huge": 3252,
      "illeg": 3253,
      "professional": 3254,
      "allegations": 3255,
      "prosecutors": 3256,
      "laden": 3257,
      "moment": 3258,
      "patriots": 3259,
      "intelligence": 3260,
      "tournament": 3261,
      "spokes": 3262,
      "guilty": 3263,
      "cingular": 3264,
      "uranium": 3265,
      "enrichment": 3266,
      "minnesota": 3267,
      "immedi": 3268,
      ".'": 3269,
      "70": 3270,
      "ba": 3271,
      "cp": 3272,
      "cz": 3273,
      "cat": 3274,
      "cro": 3275,
      "catch": 3276,
      "creat": 3277,
      "dest": 3278,
      "dies": 3279,
      "fda": 3280,
      "hon": 3281,
      "hong": 3282,
      "hous": 3283,
      "hund": 3284,
      "kong": 3285,
      "madr": 3286,
      "nob": 3287,
      "names": 3288,
      "naj": 3289,
      "ninth": 3290,
      "obs": 3291,
      "pm": 3292,
      "pent": 3293,
      "path": 3294,
      "ran": 3295,
      "song": 3296,
      "sure": 3297,
      "sanc": 3298,
      "sector": 3299,
      "tell": 3300,
      "tony": 3301,
      "via": 3302,
      "wrap": 3303,
      "zone": 3304,
      "zeal": 3305,
      "##do": 3306,
      "##dam": 3307,
      "##ders": 3308,
      "##dog": 3309,
      "##makers": 3310,
      "##na": 3311,
      "##rill": 3312,
      "##rict": 3313,
      "##ties": 3314,
      "##ha": 3315,
      "##har": 3316,
      "##pers": 3317,
      "##post": 3318,
      "##vent": 3319,
      "##zn": 3320,
      "##zz": 3321,
      "threw": 3322,
      "##ored": 3323,
      "##ati": 3324,
      "##atives": 3325,
      "##inger": 3326,
      "anc": 3327,
      "##elves": 3328,
      "##ecraft": 3329,
      "##idel": 3330,
      "##tered": 3331,
      "##oma": 3332,
      "##ental": 3333,
      "##acecraft": 3334,
      "reform": 3335,
      "##adelphia": 3336,
      "chance": 3337,
      "beij": 3338,
      "prob": 3339,
      "promp": 3340,
      "##uled": 3341,
      "spacecraft": 3342,
      "sea": 3343,
      "sequ": 3344,
      "leave": 3345,
      "##apore": 3346,
      "plc": 3347,
      "##emens": 3348,
      "##ively": 3349,
      "expos": 3350,
      "opens": 3351,
      "resour": 3352,
      "integr": 3353,
      "scot": 3354,
      "goes": 3355,
      "areas": 3356,
      "displ": 3357,
      "teen": 3358,
      "appeal": 3359,
      "moving": 3360,
      "securities": 3361,
      "##ances": 3362,
      "##ibly": 3363,
      "soar": 3364,
      "##veland": 3365,
      "##azer": 3366,
      "airways": 3367,
      "partner": 3368,
      "reds": 3369,
      "##force": 3370,
      "runs": 3371,
      "impact": 3372,
      "##ystems": 3373,
      "austria": 3374,
      "colomb": 3375,
      "knee": 3376,
      "smart": 3377,
      "heads": 3378,
      "raises": 3379,
      "confidence": 3380,
      "technologies": 3381,
      "below": 3382,
      "evac": 3383,
      "returned": 3384,
      "arab": 3385,
      "##lined": 3386,
      "includes": 3387,
      "approved": 3388,
      "hearing": 3389,
      "sym": 3390,
      "cutting": 3391,
      "singapore": 3392,
      "deaths": 3393,
      "##coming": 3394,
      "debate": 3395,
      "district": 3396,
      "person": 3397,
      "spring": 3398,
      "instit": 3399,
      "associated": 3400,
      "director": 3401,
      "safe": 3402,
      "cyber": 3403,
      "successor": 3404,
      "##astern": 3405,
      "fields": 3406,
      "investigation": 3407,
      "failed": 3408,
      "philadelphia": 3409,
      "received": 3410,
      "polls": 3411,
      "ranked": 3412,
      "muslims": 3413,
      "cleveland": 3414,
      "believe": 3415,
      "activity": 3416,
      "eyes": 3417,
      "prisoners": 3418,
      "docum": 3419,
      "pulled": 3420,
      "wounded": 3421,
      "negotiations": 3422,
      "clinch": 3423,
      "siemens": 3424,
      "insurgents": 3425,
      "picture": 3426,
      "suffered": 3427,
      "scheduled": 3428,
      "virginia": 3429,
      "##board": 3430,
      "seeded": 3431,
      "overtime": 3432,
      "amazon": 3433,
      "celebr": 3434,
      "initial": 3435,
      "mixed": 3436,
      "mexico": 3437,
      "troubled": 3438,
      "illegal": 3439,
      "hundred": 3440,
      "najaf": 3441,
      "beijing": 3442,
      ",\"": 3443,
      ",\\": 3444,
      "31": 3445,
      "41": 3446,
      "666": 3447,
      "90": 3448,
      "arial": 3449,
      "bc": 3450,
      "barg": 3451,
      "bird": 3452,
      "brew": 3453,
      "eb": 3454,
      "educ": 3455,
      "fis": 3456,
      "fine": 3457,
      "fair": 3458,
      "gar": 3459,
      "girl": 3460,
      "jet": 3461,
      "jason": 3462,
      "kar": 3463,
      "ken": 3464,
      "lack": 3465,
      "lose": 3466,
      "mp": 3467,
      "mad": 3468,
      "nc": 3469,
      "non": 3470,
      "nar": 3471,
      "nik": 3472,
      "neck": 3473,
      "nba": 3474,
      "pac": 3475,
      "pound": 3476,
      "pct": 3477,
      "sand": 3478,
      "sans": 3479,
      "somet": 3480,
      "tiger": 3481,
      "ult": 3482,
      "vs": 3483,
      "venez": 3484,
      "ways": 3485,
      "wond": 3486,
      "zar": 3487,
      "##ox": 3488,
      "##sa": 3489,
      "##mal": 3490,
      "##mond": 3491,
      "##night": 3492,
      "##gu": 3493,
      "##gent": 3494,
      "##lies": 3495,
      "##lah": 3496,
      "##rone": 3497,
      "##car": 3498,
      "##cape": 3499,
      "##kes": 3500,
      "##tions": 3501,
      "##xx": 3502,
      "##field": 3503,
      "##west": 3504,
      "##inos": 3505,
      "##anch": 3506,
      "##ari": 3507,
      "##arian": 3508,
      "##enger": 3509,
      "##alem": 3510,
      "##ality": 3511,
      "tot": 3512,
      "toy": 3513,
      "##iter": 3514,
      "##ilar": 3515,
      "andre": 3516,
      "stan": 3517,
      "fort": 3518,
      "##iring": 3519,
      "##utes": 3520,
      "##uting": 3521,
      "chen": 3522,
      "chain": 3523,
      "chech": 3524,
      "check": 3525,
      "aside": 3526,
      "##raf": 3527,
      "##rage": 3528,
      "beach": 3529,
      "pric": 3530,
      "##anda": 3531,
      "shoot": 3532,
      "whose": 3533,
      "##istic": 3534,
      "uns": 3535,
      "sp2": 3536,
      "spin": 3537,
      "spur": 3538,
      "leban": 3539,
      "##asters": 3540,
      "plus": 3541,
      "plays": 3542,
      "##umph": 3543,
      "agree": 3544,
      "agencies": 3545,
      "##ival": 3546,
      "accept": 3547,
      "expans": 3548,
      "exports": 3549,
      "repres": 3550,
      "marath": 3551,
      "##ification": 3552,
      "result": 3553,
      "serif": 3554,
      "serious": 3555,
      "##ansas": 3556,
      "goals": 3557,
      "art": 3558,
      "arena": 3559,
      "##acher": 3560,
      "##ishing": 3561,
      "perf": 3562,
      "fined": 3563,
      "finish": 3564,
      "##assy": 3565,
      "##izon": 3566,
      "cancer": 3567,
      "appears": 3568,
      "##epend": 3569,
      "flat": 3570,
      "mining": 3571,
      "related": 3572,
      "banks": 3573,
      "helvet": 3574,
      "moz": 3575,
      "micro": 3576,
      "played": 3577,
      "built": 3578,
      "microsystems": 3579,
      "##ibility": 3580,
      "wars": 3581,
      "descri": 3582,
      "officially": 3583,
      "makers": 3584,
      "cars": 3585,
      "carry": 3586,
      "consol": 3587,
      "joint": 3588,
      "slip": 3589,
      "assist": 3590,
      "assets": 3591,
      "committ": 3592,
      "reduce": 3593,
      "##enced": 3594,
      "regist": 3595,
      "swed": 3596,
      "delays": 3597,
      "glazer": 3598,
      "triumph": 3599,
      "becoming": 3600,
      "awards": 3601,
      "agrees": 3602,
      "remains": 3603,
      "=\"-": 3604,
      "=\"#": 3605,
      "striker": 3606,
      "links": 3607,
      "falls": 3608,
      "handed": 3609,
      "century": 3610,
      "hostile": 3611,
      "development": 3612,
      "pakistani": 3613,
      "room": 3614,
      "rooney": 3615,
      "titan": 3616,
      "owners": 3617,
      "verdan": 3618,
      "verizon": 3619,
      "johnson": 3620,
      "approval": 3621,
      "storage": 3622,
      "entertain": 3623,
      "frances": 3624,
      "##666": 3625,
      "format": 3626,
      "closed": 3627,
      "closing": 3628,
      "powerful": 3629,
      "idea": 3630,
      "portable": 3631,
      "boosts": 3632,
      "numbers": 3633,
      "debut": 3634,
      "broadcast": 3635,
      "promot": 3636,
      "processor": 3637,
      "democracy": 3638,
      "corporation": 3639,
      "messaging": 3640,
      "wanted": 3641,
      "##ucture": 3642,
      "electronics": 3643,
      "mosque": 3644,
      "##exp": 3645,
      "seemed": 3646,
      "roads": 3647,
      "emerg": 3648,
      "oklah": 3649,
      "influ": 3650,
      "seeking": 3651,
      "involved": 3652,
      "##ladesh": 3653,
      "classic": 3654,
      "steelers": 3655,
      "semif": 3656,
      "optim": 3657,
      "bangladesh": 3658,
      "premier": 3659,
      "vehicles": 3660,
      "roman": 3661,
      "##brid": 3662,
      "declared": 3663,
      "candidate": 3664,
      "revealed": 3665,
      "attempt": 3666,
      "counter": 3667,
      "rescue": 3668,
      "coup": 3669,
      "cleric": 3670,
      "college": 3671,
      "roger": 3672,
      "complain": 3673,
      "vacc": 3674,
      "outlook": 3675,
      "disclos": 3676,
      "sirius": 3677,
      "chelsea": 3678,
      "assembly": 3679,
      "important": 3680,
      "lawyers": 3681,
      "dozens": 3682,
      "czech": 3683,
      "madrid": 3684,
      "obser": 3685,
      "666666": 3686,
      "venezuel": 3687,
      "zarq": 3688,
      "expansion": 3689,
      "marathon": 3690,
      "helvetica": 3691,
      "verdana": 3692,
      "oklahoma": 3693,
      "(\\": 3694,
      "3g": 3695,
      "32": 3696,
      "48": 3697,
      "700": 3698,
      "aub": 3699,
      "bol": 3700,
      "bry": 3701,
      "bbc": 3702,
      "cards": 3703,
      "dial": 3704,
      "done": 3705,
      "donald": 3706,
      "ec": 3707,
      "ep": 3708,
      "eth": 3709,
      "egy": 3710,
      "eastern": 3711,
      "fier": 3712,
      "gate": 3713,
      "iv": 3714,
      "jers": 3715,
      "jim": 3716,
      "jack": 3717,
      "jose": 3718,
      "langu": 3719,
      "mat": 3720,
      "mour": 3721,
      "myst": 3722,
      "matt": 3723,
      "rand": 3724,
      "rating": 3725,
      "rush": 3726,
      "sit": 3727,
      "sad": 3728,
      "sadr": 3729,
      "tied": 3730,
      "torn": 3731,
      "va": 3732,
      "vio": 3733,
      "yen": 3734,
      "##eas": 3735,
      "##east": 3736,
      "##ease": 3737,
      "##die": 3738,
      "##ma": 3739,
      "##nn": 3740,
      "##aver": 3741,
      "##lan": 3742,
      "##lom": 3743,
      "##rad": 3744,
      "##rum": 3745,
      "##ten": 3746,
      "##hi": 3747,
      "##hib": 3748,
      "##haps": 3749,
      "##ption": 3750,
      "##va": 3751,
      "##wer": 3752,
      "##wich": 3753,
      "thing": 3754,
      "think": 3755,
      "##inn": 3756,
      "thems": 3757,
      "##ano": 3758,
      "##anish": 3759,
      "##ara": 3760,
      "##itted": 3761,
      "##icon": 3762,
      "ans": 3763,
      "##oul": 3764,
      "##tern": 3765,
      "##ently": 3766,
      "stol": 3767,
      "stun": 3768,
      "forward": 3769,
      "read": 3770,
      "reason": 3771,
      "##olis": 3772,
      "##igan": 3773,
      "##illa": 3774,
      "##illing": 3775,
      "##usalem": 3776,
      "##estic": 3777,
      "comes": 3778,
      "prop": 3779,
      "##earing": 3780,
      "newcast": 3781,
      "shows": 3782,
      "##ighter": 3783,
      "unexp": 3784,
      "save": 3785,
      "spl": 3786,
      "sport": 3787,
      "##apova": 3788,
      "##apolis": 3789,
      "plant": 3790,
      "alive": 3791,
      "##eme": 3792,
      "wash": 3793,
      "ups": 3794,
      "##ackers": 3795,
      "haw": 3796,
      "afterno": 3797,
      "amd": 3798,
      "##endo": 3799,
      "aband": 3800,
      "winner": 3801,
      "scott": 3802,
      "independ": 3803,
      "##antly": 3804,
      "cruc": 3805,
      "bron": 3806,
      "worldwide": 3807,
      "perhaps": 3808,
      "contrac": 3809,
      "accident": 3810,
      "retire": 3811,
      "defe": 3812,
      "broker": 3813,
      "brought": 3814,
      "consecut": 3815,
      "maybe": 3816,
      "opened": 3817,
      "mean": 3818,
      "surf": 3819,
      "planet": 3820,
      "governor": 3821,
      "assa": 3822,
      "##grade": 3823,
      "feder": 3824,
      "park": 3825,
      "sharapova": 3826,
      "genes": 3827,
      "##ences": 3828,
      "##ology": 3829,
      "mushar": 3830,
      "seconds": 3831,
      "medic": 3832,
      "talk": 3833,
      "feel": 3834,
      "barry": 3835,
      "ministry": 3836,
      "trib": 3837,
      "buys": 3838,
      "buyers": 3839,
      "beck": 3840,
      "calling": 3841,
      "grant": 3842,
      "confl": 3843,
      "steve": 3844,
      "cause": 3845,
      "territ": 3846,
      "##apping": 3847,
      "anticip": 3848,
      "looked": 3849,
      "offered": 3850,
      "fox": 3851,
      "networking": 3852,
      "testing": 3853,
      "provider": 3854,
      "motion": 3855,
      "##lett": 3856,
      "protection": 3857,
      "explor": 3858,
      "attacked": 3859,
      "holdings": 3860,
      "extrem": 3861,
      "iranian": 3862,
      "progress": 3863,
      "funds": 3864,
      "taiw": 3865,
      "virt": 3866,
      "students": 3867,
      "speech": 3868,
      "selling": 3869,
      "packard": 3870,
      "dropped": 3871,
      "homes": 3872,
      "debt": 3873,
      "regional": 3874,
      "distrib": 3875,
      "keeps": 3876,
      "keeping": 3877,
      "ruled": 3878,
      "berlin": 3879,
      "applications": 3880,
      "safety": 3881,
      "crashed": 3882,
      "hamas": 3883,
      "embassy": 3884,
      "voters": 3885,
      "astron": 3886,
      "ireland": 3887,
      "blasts": 3888,
      "forecasts": 3889,
      "netscape": 3890,
      "##going": 3891,
      "completed": 3892,
      "bringing": 3893,
      "danger": 3894,
      "doubt": 3895,
      "bobby": 3896,
      "cubs": 3897,
      "treas": 3898,
      "seems": 3899,
      "settlement": 3900,
      "silicon": 3901,
      "similar": 3902,
      "summer": 3903,
      "voting": 3904,
      "levels": 3905,
      "shareholder": 3906,
      "damage": 3907,
      "delayed": 3908,
      "organization": 3909,
      "features": 3910,
      "telecommun": 3911,
      "suggest": 3912,
      "royal": 3913,
      "tools": 3914,
      "hewlett": 3915,
      "identity": 3916,
      "diplom": 3917,
      "jerusalem": 3918,
      "budget": 3919,
      "freed": 3920,
      "subsidi": 3921,
      "powell": 3922,
      "encou": 3923,
      "spokesman": 3924,
      "immediately": 3925,
      "sanctions": 3926,
      "zealand": 3927,
      "resources": 3928,
      "scotland": 3929,
      "education": 3930,
      "total": 3931,
      "cheney": 3932,
      "perfect": 3933,
      "committee": 3934,
      "entertainment": 3935,
      "zarqawi": 3936,
      "(\\$": 3937,
      "auburn": 3938,
      "egypt": 3939,
      "fierce": 3940,
      "jersey": 3941,
      "vioxx": 3942,
      "themselves": 3943,
      "stolen": 3944,
      "newcastle": 3945,
      "unexpected": 3946,
      "afternoon": 3947,
      "contracts": 3948,
      "consecutive": 3949,
      "musharraf": 3950,
      "taiwan": 3951,
      "telecommunications": 3952,
      "04": 3953,
      "33": 3954,
      "49": 3955,
      "46": 3956,
      "52": 3957,
      "54": 3958,
      "800": 3959,
      "96": 3960,
      "auction": 3961,
      "bh": 3962,
      "ble": 3963,
      "buc": 3964,
      "backs": 3965,
      "bene": 3966,
      "core": 3967,
      "die": 3968,
      "dame": 3969,
      "eag": 3970,
      "eigh": 3971,
      "fel": 3972,
      "fle": 3973,
      "faster": 3974,
      "fann": 3975,
      "gard": 3976,
      "holl": 3977,
      "jak": 3978,
      "james": 3979,
      "kick": 3980,
      "kind": 3981,
      "lot": 3982,
      "lines": 3983,
      "mr": 3984,
      "mist": 3985,
      "masters": 3986,
      "ow": 3987,
      "paper": 3988,
      "pension": 3989,
      "rat": 3990,
      "rall": 3991,
      "soun": 3992,
      "sky": 3993,
      "session": 3994,
      "ten": 3995,
      "tight": 3996,
      "trop": 3997,
      "vod": 3998,
      "wm": 3999,
      "##oes": 4000,
      "##ua": 4001,
      "##ead": 4002,
      "##mens": 4003,
      "##ift": 4004,
      "##ique": 4005,
      "##gs": 4006,
      "##gn": 4007,
      "##lig": 4008,
      "##cat": 4009,
      "##cle": 4010,
      "##ction": 4011,
      "##cats": 4012,
      "##craft": 4013,
      "##held": 4014,
      "##py": 4015,
      "##pts": 4016,
      "##ym": 4017,
      "##yond": 4018,
      "##bod": 4019,
      "##fort": 4020,
      "##ze": 4021,
      "##zona": 4022,
      "##0s": 4023,
      "thom": 4024,
      "##oring": 4025,
      "##anmar": 4026,
      "inn": 4027,
      "##sters": 4028,
      "##ilities": 4029,
      "##ask": 4030,
      "##uries": 4031,
      "##enty": 4032,
      "stem": 4033,
      "stick": 4034,
      "reforms": 4035,
      "##ado": 4036,
      "##amin": 4037,
      "##oty": 4038,
      "chase": 4039,
      "##thing": 4040,
      "comeb": 4041,
      "behead": 4042,
      "bears": 4043,
      "beyond": 4044,
      "proper": 4045,
      "##ags": 4046,
      "shell": 4047,
      "##ulation": 4048,
      "##isting": 4049,
      "sav": 4050,
      "saw": 4051,
      "exc": 4052,
      "##ounts": 4053,
      "spar": 4054,
      "##ecting": 4055,
      "plat": 4056,
      "along": 4057,
      "##alled": 4058,
      "age": 4059,
      "agent": 4060,
      "offense": 4061,
      "subm": 4062,
      "upcoming": 4063,
      "worries": 4064,
      "frank": 4065,
      "overall": 4066,
      "##arta": 4067,
      "##obe": 4068,
      "##ques": 4069,
      "secure": 4070,
      "expects": 4071,
      "resol": 4072,
      "score": 4073,
      "index": 4074,
      "orders": 4075,
      "blow": 4076,
      "interv": 4077,
      "ads": 4078,
      "advert": 4079,
      "brand": 4080,
      "bruss": 4081,
      "##etsova": 4082,
      "##ously": 4083,
      "trust": 4084,
      "truck": 4085,
      "disease": 4086,
      "finals": 4087,
      "notre": 4088,
      "##izards": 4089,
      "invent": 4090,
      "helens": 4091,
      "moves": 4092,
      "##ashed": 4093,
      "pole": 4094,
      "polish": 4095,
      "deficit": 4096,
      "attorn": 4097,
      "servers": 4098,
      "liver": 4099,
      "liber": 4100,
      "aircraft": 4101,
      "mayor": 4102,
      "joe": 4103,
      "mao": 4104,
      "slump": 4105,
      "opener": 4106,
      "meas": 4107,
      "prep": 4108,
      "generation": 4109,
      "producer": 4110,
      "deliver": 4111,
      "marketing": 4112,
      "##ought": 4113,
      "guer": 4114,
      "signific": 4115,
      "remar": 4116,
      "raising": 4117,
      "started": 4118,
      "steam": 4119,
      "caut": 4120,
      "falling": 4121,
      "troj": 4122,
      "evidence": 4123,
      "suspects": 4124,
      "developed": 4125,
      "developing": 4126,
      "walker": 4127,
      "starts": 4128,
      "advance": 4129,
      "adding": 4130,
      "angels": 4131,
      "beats": 4132,
      "province": 4133,
      "bills": 4134,
      "putin": 4135,
      "titles": 4136,
      "effects": 4137,
      "very": 4138,
      "holly": 4139,
      "holding": 4140,
      "greece": 4141,
      "wrong": 4142,
      "writes": 4143,
      "customer": 4144,
      "funding": 4145,
      "hurt": 4146,
      "##season": 4147,
      "##clus": 4148,
      "ukra": 4149,
      "reaches": 4150,
      "braves": 4151,
      "possibly": 4152,
      "programs": 4153,
      "scores": 4154,
      "championships": 4155,
      "instead": 4156,
      "bert": 4157,
      "domestic": 4158,
      "directors": 4159,
      "watchdog": 4160,
      "charged": 4161,
      "graph": 4162,
      "goods": 4163,
      "##ikes": 4164,
      "successful": 4165,
      "matches": 4166,
      "##vania": 4167,
      "novell": 4168,
      "myanmar": 4169,
      "voice": 4170,
      "concern": 4171,
      "recently": 4172,
      "esp": 4173,
      "irish": 4174,
      "republican": 4175,
      "##afone": 4176,
      "receiver": 4177,
      "considered": 4178,
      "considering": 4179,
      "preparing": 4180,
      "pitcher": 4181,
      "complete": 4182,
      "replace": 4183,
      "allegedly": 4184,
      "nigerian": 4185,
      "eye": 4186,
      "voted": 4187,
      "changes": 4188,
      "cheaper": 4189,
      "indonesian": 4190,
      "qualifying": 4191,
      "piracy": 4192,
      "vehicle": 4193,
      "kuzn": 4194,
      "##where": 4195,
      "witnesses": 4196,
      "atlanta": 4197,
      "traffic": 4198,
      "rule": 4199,
      "racing": 4200,
      "woods": 4201,
      "dismiss": 4202,
      "athletics": 4203,
      "arizona": 4204,
      "practice": 4205,
      "confirmed": 4206,
      "steroid": 4207,
      "photo": 4208,
      "tonight": 4209,
      "reduced": 4210,
      "exploded": 4211,
      "earthquake": 4212,
      "ancient": 4213,
      "colombia": 4214,
      "hundreds": 4215,
      "ebay": 4216,
      "represent": 4217,
      "emergency": 4218,
      "romania": 4219,
      "language": 4220,
      "crucial": 4221,
      "federer": 4222,
      "beckham": 4223,
      "territory": 4224,
      "benef": 4225,
      "eighth": 4226,
      "fannie": 4227,
      "jakarta": 4228,
      "souness": 4229,
      "vodafone": 4230,
      "comeback": 4231,
      "brussels": 4232,
      "attorney": 4233,
      "kuznetsova": 4234,
      ".-": 4235,
      "38": 4236,
      "57": 4237,
      "55": 4238,
      "51": 4239,
      "97": 4240,
      "aig": 4241,
      "ach": 4242,
      "ben": 4243,
      "bre": 4244,
      "bir": 4245,
      "bul": 4246,
      "bod": 4247,
      "born": 4248,
      "cos": 4249,
      "coc": 4250,
      "cab": 4251,
      "crew": 4252,
      "cross": 4253,
      "fish": 4254,
      "hed": 4255,
      "hike": 4256,
      "hackers": 4257,
      "hikes": 4258,
      "ice": 4259,
      "jagu": 4260,
      "kim": 4261,
      "kenter": 4262,
      "kept": 4263,
      "kansas": 4264,
      "ll": 4265,
      "lank": 4266,
      "lands": 4267,
      "member": 4268,
      "mater": 4269,
      "ny": 4270,
      "nint": 4271,
      "oh": 4272,
      "oust": 4273,
      "pi": 4274,
      "pin": 4275,
      "pen": 4276,
      "penal": 4277,
      "rum": 4278,
      "rook": 4279,
      "rene": 4280,
      "rober": 4281,
      "rang": 4282,
      "rises": 4283,
      "river": 4284,
      "sri": 4285,
      "sie": 4286,
      "sound": 4287,
      "sending": 4288,
      "sidel": 4289,
      "tent": 4290,
      "tack": 4291,
      "ties": 4292,
      "tens": 4293,
      "ual": 4294,
      "ven": 4295,
      "vice": 4296,
      "vend": 4297,
      "wis": 4298,
      "wizards": 4299,
      "##ein": 4300,
      "##ever": 4301,
      "##dick": 4302,
      "##dden": 4303,
      "##ml": 4304,
      "##my": 4305,
      "##mos": 4306,
      "##ien": 4307,
      "##iro": 4308,
      "##iod": 4309,
      "##nam": 4310,
      "##au": 4311,
      "##gar": 4312,
      "##lins": 4313,
      "##rd": 4314,
      "##ray": 4315,
      "##right": 4316,
      "##cing": 4317,
      "##col": 4318,
      "##tom": 4319,
      "##hran": 4320,
      "##pm": 4321,
      "##pool": 4322,
      "##za": 4323,
      "##jay": 4324,
      "##ern": 4325,
      "##iny": 4326,
      "##inter": 4327,
      "##orter": 4328,
      "##anes": 4329,
      "##aries": 4330,
      "toss": 4331,
      "##itr": 4332,
      "##itor": 4333,
      "##itect": 4334,
      "##itarian": 4335,
      "##icult": 4336,
      "##stit": 4337,
      "##rol": 4338,
      "##isers": 4339,
      "##ett": 4340,
      "##etch": 4341,
      "style": 4342,
      "##real": 4343,
      "revers": 4344,
      "##irt": 4345,
      "##oles": 4346,
      "##olic": 4347,
      "##ami": 4348,
      "##otech": 4349,
      "chem": 4350,
      "##uses": 4351,
      "asked": 4352,
      "##ither": 4353,
      "isn": 4354,
      "prior": 4355,
      "##ulf": 4356,
      "congo": 4357,
      "spanish": 4358,
      "##rian": 4359,
      "##ried": 4360,
      "seoul": 4361,
      "##apse": 4362,
      "alital": 4363,
      "ens": 4364,
      "##alls": 4365,
      "computing": 4366,
      "aggress": 4367,
      "offset": 4368,
      "sues": 4369,
      "sudden": 4370,
      "worse": 4371,
      "climate": 4372,
      "##ipro": 4373,
      "overha": 4374,
      "ambit": 4375,
      "opport": 4376,
      "mars": 4377,
      "marlins": 4378,
      "##ify": 4379,
      "##abl": 4380,
      "abc": 4381,
      "resume": 4382,
      "twice": 4383,
      "scrap": 4384,
      "orange": 4385,
      "##antage": 4386,
      "crime": 4387,
      "interim": 4388,
      "coal": 4389,
      "cover": 4390,
      "coop": 4391,
      "coff": 4392,
      "trump": 4393,
      "##ictions": 4394,
      "finished": 4395,
      "tehran": 4396,
      "manning": 4397,
      "nothing": 4398,
      "noteb": 4399,
      "2003": 4400,
      "elected": 4401,
      "decide": 4402,
      "decades": 4403,
      "earn": 4404,
      "annan": 4405,
      "phill": 4406,
      "phishing": 4407,
      "warner": 4408,
      "##ght": 4409,
      "broke": 4410,
      "brothers": 4411,
      "carrier": 4412,
      "setting": 4413,
      "particip": 4414,
      "##itional": 4415,
      "mae": 4416,
      "maures": 4417,
      "sought": 4418,
      "##lands": 4419,
      "electric": 4420,
      "command": 4421,
      "gener": 4422,
      "victim": 4423,
      "announces": 4424,
      "schum": 4425,
      "delhi": 4426,
      "feed": 4427,
      "barely": 4428,
      "postseason": 4429,
      "lawmakers": 4430,
      "##ctic": 4431,
      "webs": 4432,
      "colin": 4433,
      "columb": 4434,
      "washingtonpost": 4435,
      "remo": 4436,
      "remote": 4437,
      "headed": 4438,
      "bombs": 4439,
      "strikes": 4440,
      "linked": 4441,
      "injuring": 4442,
      "causing": 4443,
      "trail": 4444,
      "handheld": 4445,
      "majority": 4446,
      "operation": 4447,
      "throw": 4448,
      "rebound": 4449,
      "suspension": 4450,
      "researchers": 4451,
      "email": 4452,
      "edition": 4453,
      "edwards": 4454,
      "##beat": 4455,
      "showing": 4456,
      "address": 4457,
      "197": 4458,
      "wayne": 4459,
      "putting": 4460,
      "terrorist": 4461,
      "patent": 4462,
      "owner": 4463,
      "##fox": 4464,
      "holy": 4465,
      "rockets": 4466,
      "driver": 4467,
      "howard": 4468,
      "charles": 4469,
      "entered": 4470,
      "mcd": 4471,
      "mcc": 4472,
      "korean": 4473,
      "standards": 4474,
      "single": 4475,
      "solar": 4476,
      "solution": 4477,
      "threats": 4478,
      "threatened": 4479,
      "homer": 4480,
      "turk": 4481,
      "##comp": 4482,
      "bottom": 4483,
      "bases": 4484,
      "domain": 4485,
      "created": 4486,
      "graeme": 4487,
      "politics": 4488,
      "cambod": 4489,
      "futures": 4490,
      "firefox": 4491,
      "hotels": 4492,
      "valu": 4493,
      "malays": 4494,
      "message": 4495,
      "skip": 4496,
      "refug": 4497,
      "ranking": 4498,
      "replac": 4499,
      "bobcats": 4500,
      "clemens": 4501,
      "believed": 4502,
      "osama": 4503,
      "channel": 4504,
      "affect": 4505,
      "affair": 4506,
      "criticism": 4507,
      "convention": 4508,
      "qualifier": 4509,
      "difficult": 4510,
      "easy": 4511,
      "january": 4512,
      "leaves": 4513,
      "falluja": 4514,
      "pictures": 4515,
      "##ointment": 4516,
      "shift": 4517,
      "doesn": 4518,
      "kidnapped": 4519,
      "hewitt": 4520,
      "mutual": 4521,
      "discovery": 4522,
      "discovered": 4523,
      "current": 4524,
      "responsible": 4525,
      "citiz": 4526,
      "friends": 4527,
      "licens": 4528,
      "rejects": 4529,
      "manufacturing": 4530,
      "previously": 4531,
      "montreal": 4532,
      "architect": 4533,
      "crowded": 4534,
      "heavy": 4535,
      "slightly": 4536,
      "strateg": 4537,
      "handsets": 4538,
      "environmental": 4539,
      "roddick": 4540,
      "belgian": 4541,
      "patients": 4542,
      "housing": 4543,
      "pentium": 4544,
      "display": 4545,
      "redskins": 4546,
      "evacu": 4547,
      "mp3": 4548,
      "stanford": 4549,
      "consolid": 4550,
      "semifinals": 4551,
      "ivory": 4552,
      "ratings": 4553,
      "answer": 4554,
      "independent": 4555,
      "retirement": 4556,
      "assault": 4557,
      "conflict": 4558,
      "eagles": 4559,
      "hollinger": 4560,
      "##otype": 4561,
      "advertising": 4562,
      "liverpool": 4563,
      "cautious": 4564,
      "hollywood": 4565,
      "ukraine": 4566,
      "graphics": 4567,
      "kenteris": 4568,
      "nintendo": 4569,
      "ohio": 4570,
      "alitalia": 4571,
      "overhaul": 4572,
      "opportun": 4573,
      "coffee": 4574,
      "mauresmo": 4575,
      "05": 4576,
      "300": 4577,
      "45": 4578,
      "62": 4579,
      "75": 4580,
      "80": 4581,
      "au": 4582,
      "ax": 4583,
      "az": 4584,
      "curs": 4585,
      "cough": 4586,
      "cult": 4587,
      "cinc": 4588,
      "cassin": 4589,
      "dop": 4590,
      "date": 4591,
      "ease": 4592,
      "fat": 4593,
      "gone": 4594,
      "gran": 4595,
      "gather": 4596,
      "hd": 4597,
      "jon": 4598,
      "jam": 4599,
      "jord": 4600,
      "jaz": 4601,
      "kod": 4602,
      "las": 4603,
      "live": 4604,
      "lib": 4605,
      "lsu": 4606,
      "lloy": 4607,
      "living": 4608,
      "mu": 4609,
      "nec": 4610,
      "nast": 4611,
      "od": 4612,
      "ped": 4613,
      "pet": 4614,
      "pra": 4615,
      "pick": 4616,
      "purs": 4617,
      "pga": 4618,
      "picked": 4619,
      "sg": 4620,
      "tap": 4621,
      "tip": 4622,
      "vul": 4623,
      "vlad": 4624,
      "wat": 4625,
      "wake": 4626,
      "wide": 4627,
      "yud": 4628,
      "##oon": 4629,
      "##oom": 4630,
      "##ule": 4631,
      "##sf": 4632,
      "##sler": 4633,
      "##syl": 4634,
      "##ew": 4635,
      "##dney": 4636,
      "##mers": 4637,
      "##iet": 4638,
      "##ae": 4639,
      "##aur": 4640,
      "##gether": 4641,
      "##giving": 4642,
      "##ril": 4643,
      "##ruit": 4644,
      "##cus": 4645,
      "##cop": 4646,
      "##ko": 4647,
      "##kn": 4648,
      "##ht": 4649,
      "##hy": 4650,
      "##hoy": 4651,
      "##burn": 4652,
      "##backs": 4653,
      "##fe": 4654,
      "##wart": 4655,
      "##work": 4656,
      "##wait": 4657,
      "##ero": 4658,
      "##inet": 4659,
      "##ono": 4660,
      "##orp": 4661,
      "##arters": 4662,
      "info": 4663,
      "together": 4664,
      "##icle": 4665,
      "##isl": 4666,
      "##etic": 4667,
      "##urton": 4668,
      "onto": 4669,
      "ongoing": 4670,
      "forced": 4671,
      "##ada": 4672,
      "##iry": 4673,
      "##amatic": 4674,
      "##lement": 4675,
      "##utions": 4676,
      "neigh": 4677,
      "##cher": 4678,
      "##raph": 4679,
      "comfort": 4680,
      "##unes": 4681,
      "##unction": 4682,
      "##imin": 4683,
      "deg": 4684,
      "##aked": 4685,
      "##essee": 4686,
      "shock": 4687,
      "april": 4688,
      "unl": 4689,
      "uncer": 4690,
      "quake": 4691,
      "exhib": 4692,
      "spect": 4693,
      "spaces": 4694,
      "seized": 4695,
      "sevent": 4696,
      "lee": 4697,
      "##aped": 4698,
      "alan": 4699,
      "always": 4700,
      "##emen": 4701,
      "wasn": 4702,
      "worm": 4703,
      "works": 4704,
      "##orted": 4705,
      "heat": 4706,
      "weaker": 4707,
      "amb": 4708,
      "##rysler": 4709,
      "reporters": 4710,
      "abb": 4711,
      "abuse": 4712,
      "resolution": 4713,
      "intends": 4714,
      "winter": 4715,
      "winners": 4716,
      "scams": 4717,
      "bln": 4718,
      "blog": 4719,
      "blaz": 4720,
      "cru": 4721,
      "gov": 4722,
      "adop": 4723,
      "admit": 4724,
      "##kei": 4725,
      "trig": 4726,
      "trick": 4727,
      "##argo": 4728,
      "##izing": 4729,
      "appeared": 4730,
      "iraqis": 4731,
      "2002": 4732,
      "flood": 4733,
      "mind": 4734,
      "##aval": 4735,
      "boom": 4736,
      "boyc": 4737,
      "moham": 4738,
      "highest": 4739,
      "pharm": 4740,
      "marked": 4741,
      "playing": 4742,
      "retired": 4743,
      "##iburton": 4744,
      "defin": 4745,
      "defend": 4746,
      "##azine": 4747,
      "teamm": 4748,
      "backed": 4749,
      "max": 4750,
      "stretch": 4751,
      "regular": 4752,
      "worker": 4753,
      "swiss": 4754,
      "banking": 4755,
      "produced": 4756,
      "implant": 4757,
      "##hipone": 4758,
      "tried": 4759,
      "laws": 4760,
      "dramatic": 4761,
      "helps": 4762,
      "##phins": 4763,
      "doing": 4764,
      "guid": 4765,
      "knicks": 4766,
      "supporters": 4767,
      "supplies": 4768,
      "grid": 4769,
      "grad": 4770,
      "southeast": 4771,
      "link": 4772,
      "course": 4773,
      "updates": 4774,
      "troub": 4775,
      "hoping": 4776,
      "missed": 4777,
      "suspect": 4778,
      "##flix": 4779,
      "deploy": 4780,
      "edge": 4781,
      "edged": 4782,
      "publish": 4783,
      "##bean": 4784,
      "advisers": 4785,
      "advantage": 4786,
      "batt": 4787,
      "batter": 4788,
      "showdown": 4789,
      "winds": 4790,
      "increasing": 4791,
      "include": 4792,
      "netflix": 4793,
      "rocked": 4794,
      "arrests": 4795,
      "hitting": 4796,
      "quickly": 4797,
      "150": 4798,
      "extra": 4799,
      "extension": 4800,
      "driven": 4801,
      "legisl": 4802,
      "sydney": 4803,
      "##ruption": 4804,
      "sells": 4805,
      "package": 4806,
      "needs": 4807,
      "traded": 4808,
      "traders": 4809,
      "homeland": 4810,
      "turning": 4811,
      "succeed": 4812,
      "promises": 4813,
      "famil": 4814,
      "critical": 4815,
      "associates": 4816,
      "hurricanes": 4817,
      "equity": 4818,
      "lineup": 4819,
      "chris": 4820,
      "democrat": 4821,
      "michigan": 4822,
      "indiana": 4823,
      "cellular": 4824,
      "embattled": 4825,
      "tennessee": 4826,
      "voip": 4827,
      "supercomp": 4828,
      "refer": 4829,
      "collect": 4830,
      "collaps": 4831,
      "collapse": 4832,
      "community": 4833,
      "##nya": 4834,
      "beginning": 4835,
      "larry": 4836,
      "tyco": 4837,
      "##otte": 4838,
      "transport": 4839,
      "doubts": 4840,
      "shuttle": 4841,
      "remained": 4842,
      "activities": 4843,
      "estate": 4844,
      "histor": 4845,
      "limit": 4846,
      "limited": 4847,
      "##burg": 4848,
      "changed": 4849,
      "ordered": 4850,
      "involving": 4851,
      "criticized": 4852,
      "humanitarian": 4853,
      "thought": 4854,
      "introduce": 4855,
      "machine": 4856,
      "envoy": 4857,
      "potentially": 4858,
      "magazine": 4859,
      "happy": 4860,
      "entire": 4861,
      "browns": 4862,
      "copy": 4863,
      "fixing": 4864,
      "kuwait": 4865,
      "choice": 4866,
      "captured": 4867,
      "schedule": 4868,
      "restruct": 4869,
      "purchase": 4870,
      "pennsyl": 4871,
      "combat": 4872,
      "condition": 4873,
      "expanded": 4874,
      "partnership": 4875,
      "casual": 4876,
      "miller": 4877,
      "request": 4878,
      "require": 4879,
      "atlantic": 4880,
      "connect": 4881,
      "resigned": 4882,
      "claiming": 4883,
      "jailed": 4884,
      "license": 4885,
      "squad": 4886,
      "widely": 4887,
      "rejected": 4888,
      "screen": 4889,
      "recovery": 4890,
      "figures": 4891,
      "gaming": 4892,
      "hills": 4893,
      "halliburton": 4894,
      "occup": 4895,
      "temp": 4896,
      "separat": 4897,
      "movies": 4898,
      "movie": 4899,
      "favor": 4900,
      "natural": 4901,
      "plunged": 4902,
      "thanksgiving": 4903,
      "awaited": 4904,
      "audio": 4905,
      "bitter": 4906,
      "dolphins": 4907,
      "sensitive": 4908,
      "welcom": 4909,
      "pledged": 4910,
      "struggling": 4911,
      "crown": 4912,
      "nobel": 4913,
      "probably": 4914,
      "fiscal": 4915,
      "nikkei": 4916,
      "something": 4917,
      "chechnya": 4918,
      "gateway": 4919,
      "saddam": 4920,
      "##innati": 4921,
      "abandon": 4922,
      "anticipated": 4923,
      "dangerous": 4924,
      "encoura": 4925,
      "unexpectedly": 4926,
      "bhp": 4927,
      "interview": 4928,
      "measures": 4929,
      "material": 4930,
      "rookie": 4931,
      "renew": 4932,
      "suddenly": 4933,
      "notebook": 4934,
      "schumacher": 4935,
      "turkish": 4936,
      "cincinnati": 4937,
      "cassini": 4938,
      "doping": 4939,
      "jordan": 4940,
      "kodak": 4941,
      "vulner": 4942,
      "yudhoy": 4943,
      "uncertain": 4944,
      "exhibition": 4945,
      "spaceshipone": 4946,
      "seventh": 4947,
      "supercomputer": 4948,
      "yudhoyono": 4949,
      ".&": 4950,
      "3q": 4951,
      "67": 4952,
      "87": 4953,
      ";.": 4954,
      "aol": 4955,
      "bog": 4956,
      "books": 4957,
      "bought": 4958,
      "cra": 4959,
      "cities": 4960,
      "cases": 4961,
      "du": 4962,
      "dub": 4963,
      "dick": 4964,
      "dog": 4965,
      "dict": 4966,
      "eri": 4967,
      "either": 4968,
      "fill": 4969,
      "fear": 4970,
      "father": 4971,
      "gay": 4972,
      "gord": 4973,
      "gib": 4974,
      "gulf": 4975,
      "hond": 4976,
      "ib": 4977,
      "jacks": 4978,
      "jpe": 4979,
      "ky": 4980,
      "luc": 4981,
      "mis": 4982,
      "mir": 4983,
      "mand": 4984,
      "map": 4985,
      "mine": 4986,
      "mouse": 4987,
      "nv": 4988,
      "ned": 4989,
      "pt": 4990,
      "pap": 4991,
      "padr": 4992,
      "picks": 4993,
      "rw": 4994,
      "rut": 4995,
      "rost": 4996,
      "rare": 4997,
      "rav": 4998,
      "rocks": 4999,
      "rather": 5000,
      "sor": 5001,
      "tig": 5002,
      "tree": 5003,
      "vog": 5004,
      "wta": 5005,
      "wait": 5006,
      "xm": 5007,
      "yard": 5008,
      "zimb": 5009,
      "##of": 5010,
      "##uan": 5011,
      "##ued": 5012,
      "##uite": 5013,
      "##eer": 5014,
      "##me": 5015,
      "##mad": 5016,
      "##mand": 5017,
      "##iation": 5018,
      "##ground": 5019,
      "##lers": 5020,
      "##light": 5021,
      "##liest": 5022,
      "##cos": 5023,
      "##cell": 5024,
      "##care": 5025,
      "##ki": 5026,
      "##kel": 5027,
      "##tv": 5028,
      "##hard": 5029,
      "##horn": 5030,
      "##pp": 5031,
      "##bury": 5032,
      "##fc": 5033,
      "##zen": 5034,
      "##zai": 5035,
      "##web": 5036,
      "##jects": 5037,
      "##inct": 5038,
      "##esco": 5039,
      "##orary": 5040,
      "##orrow": 5041,
      "inch": 5042,
      "inqu": 5043,
      "##aly": 5044,
      "##ales": 5045,
      "tosh": 5046,
      "towards": 5047,
      "##iton": 5048,
      "##icated": 5049,
      "##icious": 5050,
      "##star": 5051,
      "often": 5052,
      "anton": 5053,
      "##iled": 5054,
      "##ayan": 5055,
      "##oud": 5056,
      "##oum": 5057,
      "##outh": 5058,
      "##eline": 5059,
      "##omm": 5060,
      "andy": 5061,
      "sting": 5062,
      "forbes": 5063,
      "refl": 5064,
      "##olina": 5065,
      "##amb": 5066,
      "##igning": 5067,
      "##erson": 5068,
      "##uted": 5069,
      "##iller": 5070,
      "##vez": 5071,
      "##che": 5072,
      "##char": 5073,
      "chanc": 5074,
      "asyl": 5075,
      "##une": 5076,
      "##iment": 5077,
      "##imir": 5078,
      "##osen": 5079,
      "produce": 5080,
      "deals": 5081,
      "prim": 5082,
      "shadow": 5083,
      "apolog": 5084,
      "##ighters": 5085,
      "##uls": 5086,
      "##isted": 5087,
      "conduc": 5088,
      "unable": 5089,
      "unless": 5090,
      "saud": 5091,
      "quite": 5092,
      "##oph": 5093,
      "exit": 5094,
      "exclus": 5095,
      "spent": 5096,
      "spons": 5097,
      "spread": 5098,
      "sean": 5099,
      "##apt": 5100,
      "plenty": 5101,
      "alert": 5102,
      "altern": 5103,
      "##eman": 5104,
      "##emony": 5105,
      "##umi": 5106,
      "##umn": 5107,
      "##iana": 5108,
      "hass": 5109,
      "upset": 5110,
      "##ours": 5111,
      "##ource": 5112,
      "willing": 5113,
      "heating": 5114,
      "clot": 5115,
      "weather": 5116,
      "overcome": 5117,
      "overnight": 5118,
      "haul": 5119,
      "##ellor": 5120,
      "##uggle": 5121,
      "expands": 5122,
      "incent": 5123,
      "##endum": 5124,
      "##ife": 5125,
      "##abad": 5126,
      "##abwe": 5127,
      "abs": 5128,
      "##aceut": 5129,
      "orbit": 5130,
      "blun": 5131,
      "arbit": 5132,
      "arctic": 5133,
      "##keep": 5134,
      "##ishi": 5135,
      "recomm": 5136,
      "peak": 5137,
      "pervez": 5138,
      "contest": 5139,
      "busch": 5140,
      "##izumi": 5141,
      "2000": 5142,
      "2001": 5143,
      "corner": 5144,
      "##eph": 5145,
      "flo": 5146,
      "fla": 5147,
      "flaw": 5148,
      "eli": 5149,
      "accounts": 5150,
      "relations": 5151,
      "##aves": 5152,
      "highway": 5153,
      "allows": 5154,
      "allawi": 5155,
      "alliance": 5156,
      "buff": 5157,
      "##iba": 5158,
      "warns": 5159,
      "defensive": 5160,
      "attract": 5161,
      "attention": 5162,
      "brother": 5163,
      "ends": 5164,
      "monthly": 5165,
      "carl": 5166,
      "airport": 5167,
      "parties": 5168,
      "backing": 5169,
      "joins": 5170,
      "slam": 5171,
      "slide": 5172,
      "slash": 5173,
      "means": 5174,
      "surpr": 5175,
      "common": 5176,
      "reduction": 5177,
      "feds": 5178,
      "fedex": 5179,
      "parent": 5180,
      "sharing": 5181,
      "normal": 5182,
      "schilling": 5183,
      "longhorn": 5184,
      "palace": 5185,
      "palms": 5186,
      "fees": 5187,
      "glass": 5188,
      "glitch": 5189,
      "barcel": 5190,
      "postpon": 5191,
      "tries": 5192,
      "technical": 5193,
      "##phis": 5194,
      "##phere": 5195,
      "launching": 5196,
      "demands": 5197,
      "headqu": 5198,
      "raiders": 5199,
      "bigger": 5200,
      "poor": 5201,
      "poison": 5202,
      "striking": 5203,
      "stewart": 5204,
      "caution": 5205,
      "caught": 5206,
      "managed": 5207,
      "centre": 5208,
      "operator": 5209,
      "events": 5210,
      "evolution": 5211,
      "merge": 5212,
      "halt": 5213,
      "vik": 5214,
      "vijay": 5215,
      "datab": 5216,
      "emc": 5217,
      "filing": 5218,
      "teleph": 5219,
      "adds": 5220,
      "198": 5221,
      "passenger": 5222,
      "provided": 5223,
      "billiton": 5224,
      "images": 5225,
      "owned": 5226,
      "nascar": 5227,
      "northwest": 5228,
      "deadly": 5229,
      "deadline": 5230,
      "devast": 5231,
      "charac": 5232,
      "armed": 5233,
      "anyone": 5234,
      "formal": 5235,
      "##rupted": 5236,
      "steps": 5237,
      "stepped": 5238,
      "reaching": 5239,
      "lowest": 5240,
      "shoulder": 5241,
      "solid": 5242,
      "traditional": 5243,
      "drops": 5244,
      "portug": 5245,
      "distance": 5246,
      "##iership": 5247,
      "morgan": 5248,
      "memphis": 5249,
      "promised": 5250,
      "berth": 5251,
      "positions": 5252,
      "violent": 5253,
      "controlled": 5254,
      "experience": 5255,
      "prevent": 5256,
      "grab": 5257,
      "continuing": 5258,
      "sudanese": 5259,
      "indianapolis": 5260,
      "discip": 5261,
      "everything": 5262,
      "cells": 5263,
      "valent": 5264,
      "bayer": 5265,
      "hammer": 5266,
      "malcol": 5267,
      "urges": 5268,
      "revenues": 5269,
      "fails": 5270,
      "greatest": 5271,
      "privately": 5272,
      "philip": 5273,
      "philips": 5274,
      "behav": 5275,
      "blackburn": 5276,
      "prepares": 5277,
      "mortar": 5278,
      "netsuite": 5279,
      "finds": 5280,
      "gmail": 5281,
      "rankings": 5282,
      "dani": 5283,
      "mountain": 5284,
      "object": 5285,
      "transact": 5286,
      "improved": 5287,
      "smaller": 5288,
      "multip": 5289,
      "summ": 5290,
      "ballmer": 5291,
      "doctors": 5292,
      "emerged": 5293,
      "factories": 5294,
      "pushed": 5295,
      "inflation": 5296,
      "convicted": 5297,
      "castro": 5298,
      "hunting": 5299,
      "henman": 5300,
      "jean": 5301,
      "jeff": 5302,
      "kofi": 5303,
      "koizumi": 5304,
      "magn": 5305,
      "premiership": 5306,
      "availability": 5307,
      "insurgent": 5308,
      ".\\\\": 5309,
      "lockout": 5310,
      "bloody": 5311,
      "##ointed": 5312,
      "choos": 5313,
      "shiite": 5314,
      "announcement": 5315,
      "raptors": 5316,
      "shrine": 5317,
      "shrug": 5318,
      "viruses": 5319,
      "candidates": 5320,
      "trafford": 5321,
      "withdraw": 5322,
      "ferr": 5323,
      "predict": 5324,
      "predicted": 5325,
      "lifted": 5326,
      "harmony": 5327,
      "journalists": 5328,
      "flying": 5329,
      "hybrid": 5330,
      "arrived": 5331,
      "statement": 5332,
      "weighs": 5333,
      "charlotte": 5334,
      "camera": 5335,
      "cameras": 5336,
      "introduced": 5337,
      "murder": 5338,
      "crackdown": 5339,
      "sweeping": 5340,
      "creating": 5341,
      "songs": 5342,
      "prompting": 5343,
      "sequel": 5344,
      "bcs": 5345,
      "bargain": 5346,
      "karzai": 5347,
      "wonder": 5348,
      "andreas": 5349,
      "pricing": 5350,
      "lebanese": 5351,
      "mozilla": 5352,
      "assistant": 5353,
      "sweden": 5354,
      "promotion": 5355,
      "optimistic": 5356,
      "vaccine": 5357,
      "rushed": 5358,
      "situation": 5359,
      "broncos": 5360,
      "genesis": 5361,
      "explorer": 5362,
      "virtual": 5363,
      "treasuries": 5364,
      "subsidiary": 5365,
      "blew": 5366,
      "diego": 5367,
      "garden": 5368,
      "rallied": 5369,
      "trophy": 5370,
      "thomas": 5371,
      "prepare": 5372,
      "significantly": 5373,
      "trojan": 5374,
      "dismissed": 5375,
      "cabinet": 5376,
      "hedge": 5377,
      "rangers": 5378,
      "siege": 5379,
      "chemical": 5380,
      "ensure": 5381,
      "aggressive": 5382,
      "ambitious": 5383,
      "columbia": 5384,
      "cambodia": 5385,
      "malaysia": 5386,
      "replacement": 5387,
      "strategic": 5388,
      "aziz": 5389,
      "libya": 5390,
      "lloyds": 5391,
      "vladimir": 5392,
      "trigger": 5393,
      "pharmaceut": 5394,
      "referendum": 5395,
      "collapsed": 5396,
      "historic": 5397,
      "restructuring": 5398,
      "pennsylvania": 5399,
      "welcomed": 5400,
      "jackson": 5401,
      "jpeg": 5402,
      "padres": 5403,
      "tigers": 5404,
      "vogts": 5405,
      "zimbabwe": 5406,
      "inquiry": 5407,
      "toshiba": 5408,
      "antonio": 5409,
      "chancellor": 5410,
      "asylum": 5411,
      "saudi": 5412,
      "palmsource": 5413,
      "barcelona": 5414,
      "malcolm": 5415,
      "\"\\": 5416,
      "47": 5417,
      "43": 5418,
      "53": 5419,
      "56": 5420,
      "550": 5421,
      "64": 5422,
      "79": 5423,
      "78": 5424,
      "82": 5425,
      "99": 5426,
      "94": 5427,
      "aer": 5428,
      "ace": 5429,
      "band": 5430,
      "brom": 5431,
      "bub": 5432,
      "bond": 5433,
      "bound": 5434,
      "cow": 5435,
      "crop": 5436,
      "ds": 5437,
      "eis": 5438,
      "fi": 5439,
      "f1": 5440,
      "foss": 5441,
      "fcc": 5442,
      "gh": 5443,
      "gal": 5444,
      "gall": 5445,
      "gang": 5446,
      "gross": 5447,
      "han": 5448,
      "hus": 5449,
      "hip": 5450,
      "hide": 5451,
      "huss": 5452,
      "hugh": 5453,
      "iron": 5454,
      "ign": 5455,
      "jp": 5456,
      "jays": 5457,
      "jama": 5458,
      "jht": 5459,
      "kl": 5460,
      "kev": 5461,
      "kicked": 5462,
      "lg": 5463,
      "lc": 5464,
      "les": 5465,
      "lag": 5466,
      "lob": 5467,
      "lions": 5468,
      "lets": 5469,
      "mv": 5470,
      "mig": 5471,
      "mile": 5472,
      "mits": 5473,
      "math": 5474,
      "nan": 5475,
      "nort": 5476,
      "nick": 5477,
      "pact": 5478,
      "porn": 5479,
      "pushing": 5480,
      "qty": 5481,
      "qcat": 5482,
      "ren": 5483,
      "rou": 5484,
      "rid": 5485,
      "rice": 5486,
      "rup": 5487,
      "rick": 5488,
      "ross": 5489,
      "races": 5490,
      "rattled": 5491,
      "sel": 5492,
      "sac": 5493,
      "samp": 5494,
      "sven": 5495,
      "sense": 5496,
      "sends": 5497,
      "sams": 5498,
      "sides": 5499,
      "tact": 5500,
      "var": 5501,
      "vig": 5502,
      "veter": 5503,
      "wast": 5504,
      "wimb": 5505,
      "wides": 5506,
      "wto": 5507,
      "zur": 5508,
      "##ois": 5509,
      "##eim": 5510,
      "##eals": 5511,
      "##dy": 5512,
      "##maker": 5513,
      "##iop": 5514,
      "##iem": 5515,
      "##netw": 5516,
      "##aq": 5517,
      "##aire": 5518,
      "##gas": 5519,
      "##lon": 5520,
      "##ror": 5521,
      "##rel": 5522,
      "##rate": 5523,
      "##rick": 5524,
      "##rating": 5525,
      "##cr": 5526,
      "##cling": 5527,
      "##hen": 5528,
      "##hol": 5529,
      "##hood": 5530,
      "##house": 5531,
      "##ple": 5532,
      "##pose": 5533,
      "##pread": 5534,
      "##yg": 5535,
      "##yan": 5536,
      "##bus": 5537,
      "##break": 5538,
      "##vic": 5539,
      "##wr": 5540,
      "##wom": 5541,
      "##well": 5542,
      "##40": 5543,
      "##erv": 5544,
      "##eries": 5545,
      "thai": 5546,
      "##inh": 5547,
      "##onia": 5548,
      "##onstr": 5549,
      "##orld": 5550,
      "##anger": 5551,
      "##anium": 5552,
      "##ares": 5553,
      "##enport": 5554,
      "##ata": 5555,
      "innings": 5556,
      "##ali": 5557,
      "toys": 5558,
      "##iti": 5559,
      "##itude": 5560,
      "##icop": 5561,
      "##icals": 5562,
      "##icient": 5563,
      "##station": 5564,
      "##stand": 5565,
      "##stant": 5566,
      "anth": 5567,
      "anim": 5568,
      "anah": 5569,
      "##iling": 5570,
      "##ilton": 5571,
      "##ascus": 5572,
      "##elder": 5573,
      "##elook": 5574,
      "##isions": 5575,
      "##eces": 5576,
      "##etary": 5577,
      "##etnam": 5578,
      "##omic": 5579,
      "##omber": 5580,
      "##urch": 5581,
      "stro": 5582,
      "stamp": 5583,
      "stops": 5584,
      "stability": 5585,
      "stumb": 5586,
      "##acity": 5587,
      "##reg": 5588,
      "##repr": 5589,
      "##ador": 5590,
      "##aded": 5591,
      "##irus": 5592,
      "##olt": 5593,
      "##otelook": 5594,
      "##owed": 5595,
      "church": 5596,
      "##tha": 5597,
      "##usion": 5598,
      "##estone": 5599,
      "ash": 5600,
      "bea": 5601,
      "prox": 5602,
      "projects": 5603,
      "atmos": 5604,
      "atomic": 5605,
      "##aking": 5606,
      "priest": 5607,
      "newly": 5608,
      "##ulous": 5609,
      "##istics": 5610,
      "##ocol": 5611,
      "concess": 5612,
      "conrad": 5613,
      "und": 5614,
      "unc": 5615,
      "unw": 5616,
      "units": 5617,
      "que": 5618,
      "quality": 5619,
      "existing": 5620,
      "spir": 5621,
      "##ksson": 5622,
      "ally": 5623,
      "alco": 5624,
      "alask": 5625,
      "##emy": 5626,
      "enh": 5627,
      "enforce": 5628,
      "compat": 5629,
      "compens": 5630,
      "usc": 5631,
      "user": 5632,
      "agass": 5633,
      "upper": 5634,
      "word": 5635,
      "##ivirus": 5636,
      "##oots": 5637,
      "##ially": 5638,
      "clar": 5639,
      "fred": 5640,
      "frust": 5641,
      "fract": 5642,
      "overc": 5643,
      "##inez": 5644,
      "##ello": 5645,
      "##quotelook": 5646,
      "##enson": 5647,
      "##ucks": 5648,
      "oppon": 5649,
      "incoming": 5650,
      "repeat": 5651,
      "mary": 5652,
      "maria": 5653,
      "marines": 5654,
      "margar": 5655,
      "##ifying": 5656,
      "ability": 5657,
      "resh": 5658,
      "intended": 5659,
      "twin": 5660,
      "serb": 5661,
      "indy": 5662,
      "indicted": 5663,
      "##ordin": 5664,
      "orig": 5665,
      "orton": 5666,
      "bloc": 5667,
      "blamed": 5668,
      "##ubishi": 5669,
      "arms": 5670,
      "adobe": 5671,
      "adrian": 5672,
      "bright": 5673,
      "branch": 5674,
      "recall": 5675,
      "recog": 5676,
      "pep": 5677,
      "peer": 5678,
      "##ogue": 5679,
      "period": 5680,
      "text": 5681,
      "manmo": 5682,
      "appeals": 5683,
      "##orse": 5684,
      "##berg": 5685,
      "corruption": 5686,
      "##ffin": 5687,
      "##amped": 5688,
      "flow": 5689,
      "flags": 5690,
      "else": 5691,
      "minor": 5692,
      "minutes": 5693,
      "relay": 5694,
      "relief": 5695,
      "declin": 5696,
      "declined": 5697,
      "banned": 5698,
      "helicop": 5699,
      "##osevic": 5700,
      "annivers": 5701,
      "playstation": 5702,
      "##herlands": 5703,
      "milosevic": 5704,
      "##ibbean": 5705,
      "defending": 5706,
      "defender": 5707,
      "deser": 5708,
      "desert": 5709,
      "techweb": 5710,
      "broken": 5711,
      "carolina": 5712,
      "caribbean": 5713,
      "airbus": 5714,
      "sett": 5715,
      "consp": 5716,
      "joined": 5717,
      "surges": 5718,
      "surround": 5719,
      "struggle": 5720,
      "planes": 5721,
      "salv": 5722,
      "couldn": 5723,
      "assassin": 5724,
      "committed": 5725,
      "capsu": 5726,
      "capacity": 5727,
      "##encing": 5728,
      "##ologists": 5729,
      "##conn": 5730,
      "musab": 5731,
      "releases": 5732,
      "swapping": 5733,
      "longer": 5734,
      "palm": 5735,
      "deleg": 5736,
      "feet": 5737,
      "implement": 5738,
      "tops": 5739,
      "glory": 5740,
      "bars": 5741,
      "barcl": 5742,
      "postp": 5743,
      "drin": 5744,
      "chiefs": 5745,
      "economists": 5746,
      "guy": 5747,
      "guards": 5748,
      "smashed": 5749,
      "heading": 5750,
      "raid": 5751,
      "##enna": 5752,
      "##ledon": 5753,
      "injures": 5754,
      "steep": 5755,
      "detention": 5756,
      "caf": 5757,
      "caused": 5758,
      "reportedly": 5759,
      "antivirus": 5760,
      "returns": 5761,
      "rebu": 5762,
      "suspic": 5763,
      "vietnam": 5764,
      "paying": 5765,
      "eds": 5766,
      "edm": 5767,
      "edges": 5768,
      "offerings": 5769,
      "goog": 5770,
      "##umption": 5771,
      "providers": 5772,
      "titans": 5773,
      "terrorists": 5774,
      "patrol": 5775,
      "##liner": 5776,
      "##linary": 5777,
      "##linois": 5778,
      "himal": 5779,
      "protocol": 5780,
      "increases": 5781,
      "netherlands": 5782,
      "heard": 5783,
      "devil": 5784,
      "extreme": 5785,
      "harv": 5786,
      "however": 5787,
      "aviation": 5788,
      "student": 5789,
      "syria": 5790,
      "syrac": 5791,
      "revolution": 5792,
      "davenport": 5793,
      "stephen": 5794,
      "reality": 5795,
      "golden": 5796,
      "mci": 5797,
      "visual": 5798,
      "visiting": 5799,
      "freeze": 5800,
      "lowe": 5801,
      "active": 5802,
      "schools": 5803,
      "brain": 5804,
      "solutions": 5805,
      "portland": 5806,
      "sixth": 5807,
      "turf": 5808,
      "##news": 5809,
      "species": 5810,
      "distract": 5811,
      "bern": 5812,
      "critics": 5813,
      "policemen": 5814,
      "experi": 5815,
      "experim": 5816,
      "chargers": 5817,
      "safin": 5818,
      "challenges": 5819,
      "cycling": 5820,
      "sentenced": 5821,
      "sentiment": 5822,
      "##ikh": 5823,
      "##atorial": 5824,
      "firew": 5825,
      "mainly": 5826,
      "pope": 5827,
      "vegas": 5828,
      "yanks": 5829,
      "indians": 5830,
      "value": 5831,
      "infotype": 5832,
      "junk": 5833,
      "loan": 5834,
      "love": 5835,
      "loeb": 5836,
      "urgent": 5837,
      "##aii": 5838,
      "leadership": 5839,
      "msft": 5840,
      "messages": 5841,
      "nationwide": 5842,
      "seeing": 5843,
      "investigating": 5844,
      "failing": 5845,
      "##planes": 5846,
      "compete": 5847,
      "snow": 5848,
      "hopeful": 5849,
      "pitching": 5850,
      "replaced": 5851,
      "foods": 5852,
      "obtain": 5853,
      "utility": 5854,
      "improving": 5855,
      "cube": 5856,
      "cuban": 5857,
      "jumped": 5858,
      "believes": 5859,
      "authority": 5860,
      "martinez": 5861,
      "ryan": 5862,
      "emerging": 5863,
      "factions": 5864,
      "limits": 5865,
      "plea": 5866,
      "votes": 5867,
      "wounding": 5868,
      "##kett": 5869,
      "visitors": 5870,
      "damascus": 5871,
      "modern": 5872,
      "cheap": 5873,
      "clinical": 5874,
      "celt": 5875,
      "islamabad": 5876,
      "boxing": 5877,
      "downloading": 5878,
      "advances": 5879,
      "letter": 5880,
      "organiz": 5881,
      "easing": 5882,
      "eastman": 5883,
      "henry": 5884,
      "henkel": 5885,
      "tommy": 5886,
      "tomorrow": 5887,
      "options": 5888,
      "colorado": 5889,
      "route": 5890,
      "routed": 5891,
      "entrepr": 5892,
      "allowed": 5893,
      "eventually": 5894,
      "rolls": 5895,
      "rolling": 5896,
      "##mark": 5897,
      "restrictions": 5898,
      "kidnappers": 5899,
      "brian": 5900,
      "denver": 5901,
      "illinois": 5902,
      "rapid": 5903,
      "climbed": 5904,
      "breaking": 5905,
      "##weight": 5906,
      "amazing": 5907,
      "resignation": 5908,
      "gunmen": 5909,
      "switches": 5910,
      "withdrawal": 5911,
      "friend": 5912,
      "fastest": 5913,
      "thinking": 5914,
      "financequotelook": 5915,
      "ariel": 5916,
      "luke": 5917,
      "##uffle": 5918,
      "confirm": 5919,
      "walkman": 5920,
      "oversh": 5921,
      "santa": 5922,
      "strategy": 5923,
      "certain": 5924,
      "ceremony": 5925,
      "griffin": 5926,
      "murdo": 5927,
      "##itzer": 5928,
      "detained": 5929,
      "subscribers": 5930,
      "destro": 5931,
      "soaring": 5932,
      "institute": 5933,
      "document": 5934,
      "documents": 5935,
      "ncaa": 5936,
      "narrow": 5937,
      "pacific": 5938,
      "toyota": 5939,
      "shooting": 5940,
      "unsolic": 5941,
      "ownership": 5942,
      "influential": 5943,
      "disclosed": 5944,
      "dialogue": 5945,
      "ethiop": 5946,
      "mourning": 5947,
      "hawaii": 5948,
      "defeated": 5949,
      "medicare": 5950,
      "tribal": 5951,
      "astronom": 5952,
      "felt": 5953,
      "mistakes": 5954,
      "owen": 5955,
      "innov": 5956,
      "platform": 5957,
      "maoist": 5958,
      "remarks": 5959,
      "representatives": 5960,
      "bodies": 5961,
      "jaguar": 5962,
      "lanka": 5963,
      "robert": 5964,
      "vendor": 5965,
      "##stitution": 5966,
      "valuable": 5967,
      "skipper": 5968,
      "affairs": 5969,
      "licensing": 5970,
      "opportunity": 5971,
      "neighbor": 5972,
      "abbey": 5973,
      "blazers": 5974,
      "boycott": 5975,
      "definition": 5976,
      "tycoon": 5977,
      "casualties": 5978,
      "renewed": 5979,
      "eriksson": 5980,
      "gordon": 5981,
      "hassan": 5982,
      "blunkett": 5983,
      "arbitration": 5984,
      "glitches": 5985,
      "headquarters": 5986,
      "vikings": 5987,
      "portugal": 5988,
      "disciplinary": 5989,
      "behavior": 5990,
      "choosing": 5991,
      "eisner": 5992,
      "fossil": 5993,
      "hussein": 5994,
      "jamaica": 5995,
      "jhtml": 5996,
      "kevin": 5997,
      "lcd": 5998,
      "mvp": 5999,
      "mitsubishi": 6000,
      "qtype": 6001,
      "ricky": 6002,
      "samsung": 6003,
      "wimbledon": 6004,
      "widespread": 6005,
      "zurich": 6006,
      "##woman": 6007,
      "anaheim": 6008,
      "atmosphere": 6009,
      "alaska": 6010,
      "compensation": 6011,
      "agassi": 6012,
      "margaret": 6013,
      "recogn": 6014,
      "manmohan": 6015,
      "declining": 6016,
      "helicopter": 6017,
      "anniversary": 6018,
      "capsule": 6019,
      "barclays": 6020,
      "syracuse": 6021,
      "financequotelookup": 6022,
      "murdoch": 6023,
      "unsolicited": 6024,
      "37": 6025,
      "3rd": 6026,
      "59": 6027,
      "65": 6028,
      "63": 6029,
      "66": 6030,
      "71": 6031,
      "81": 6032,
      "88": 6033,
      "bm": 6034,
      "bes": 6035,
      "bed": 6036,
      "book": 6037,
      "bomber": 6038,
      "cd": 6039,
      "cir": 6040,
      "cold": 6041,
      "cited": 6042,
      "cath": 6043,
      "cable": 6044,
      "craft": 6045,
      "cert": 6046,
      "caval": 6047,
      "dh": 6048,
      "der": 6049,
      "dur": 6050,
      "dun": 6051,
      "dall": 6052,
      "dug": 6053,
      "dail": 6054,
      "dys": 6055,
      "dna": 6056,
      "ele": 6057,
      "ech": 6058,
      "erupted": 6059,
      "fd": 6060,
      "fm": 6061,
      "ft": 6062,
      "fan": 6063,
      "fash": 6064,
      "fals": 6065,
      "feared": 6066,
      "fighters": 6067,
      "gor": 6068,
      "gur": 6069,
      "gad": 6070,
      "gig": 6071,
      "gop": 6072,
      "giam": 6073,
      "ho": 6074,
      "hoc": 6075,
      "hart": 6076,
      "hok": 6077,
      "hiring": 6078,
      "ii": 6079,
      "ic": 6080,
      "ioc": 6081,
      "ill": 6082,
      "ji": 6083,
      "jac": 6084,
      "jury": 6085,
      "km": 6086,
      "kaz": 6087,
      "kath": 6088,
      "karm": 6089,
      "kyle": 6090,
      "kris": 6091,
      "lun": 6092,
      "lia": 6093,
      "lord": 6094,
      "lake": 6095,
      "lod": 6096,
      "lure": 6097,
      "loy": 6098,
      "lists": 6099,
      "lacks": 6100,
      "lux": 6101,
      "lley": 6102,
      "ml": 6103,
      "mh": 6104,
      "mates": 6105,
      "moss": 6106,
      "mey": 6107,
      "master": 6108,
      "nom": 6109,
      "nose": 6110,
      "ps": 6111,
      "pf": 6112,
      "p2": 6113,
      "pon": 6114,
      "pill": 6115,
      "pays": 6116,
      "pages": 6117,
      "peter": 6118,
      "rs": 6119,
      "rf": 6120,
      "rays": 6121,
      "rash": 6122,
      "rape": 6123,
      "rss": 6124,
      "sin": 6125,
      "self": 6126,
      "soci": 6127,
      "ssh": 6128,
      "svet": 6129,
      "sacked": 6130,
      "soph": 6131,
      "tar": 6132,
      "tain": 6133,
      "tape": 6134,
      "tiny": 6135,
      "vin": 6136,
      "wa": 6137,
      "wing": 6138,
      "wro": 6139,
      "wil": 6140,
      "wine": 6141,
      "wage": 6142,
      "waz": 6143,
      "wire": 6144,
      "wys": 6145,
      "wave": 6146,
      "woes": 6147,
      "##oit": 6148,
      "##sin": 6149,
      "##eason": 6150,
      "##ding": 6151,
      "##mes": 6152,
      "##mine": 6153,
      "##iar": 6154,
      "##ias": 6155,
      "##ios": 6156,
      "##ni": 6157,
      "##nic": 6158,
      "##ao": 6159,
      "##lor": 6160,
      "##lison": 6161,
      "##lana": 6162,
      "##rim": 6163,
      "##rors": 6164,
      "##ca": 6165,
      "##case": 6166,
      "##kin": 6167,
      "##tar": 6168,
      "##town": 6169,
      "##tada": 6170,
      "##hill": 6171,
      "##hman": 6172,
      "##po": 6173,
      "##pes": 6174,
      "##pass": 6175,
      "##pped": 6176,
      "##yad": 6177,
      "##bon": 6178,
      "##bel": 6179,
      "##bos": 6180,
      "##bour": 6181,
      "##base": 6182,
      "##bek": 6183,
      "##boy": 6184,
      "##bank": 6185,
      "##body": 6186,
      "##vin": 6187,
      "##fall": 6188,
      "##zed": 6189,
      "##zie": 6190,
      "##zone": 6191,
      "##zuk": 6192,
      "##qtada": 6193,
      "##wag": 6194,
      "##western": 6195,
      "##wau": 6196,
      "##jected": 6197,
      "##joy": 6198,
      "##--": 6199,
      "##\\\\": 6200,
      "##erate": 6201,
      "##erie": 6202,
      "these": 6203,
      "##iners": 6204,
      "##inters": 6205,
      "##oni": 6206,
      "##onz": 6207,
      "##oned": 6208,
      "##orox": 6209,
      "##anges": 6210,
      "##anova": 6211,
      "##arr": 6212,
      "##arus": 6213,
      "##enque": 6214,
      "##attered": 6215,
      "##atively": 6216,
      "##alo": 6217,
      "##alore": 6218,
      "##iture": 6219,
      "##itting": 6220,
      "##icts": 6221,
      "##icut": 6222,
      "##icate": 6223,
      "##ician": 6224,
      "##icits": 6225,
      "##stal": 6226,
      "##stream": 6227,
      "##roc": 6228,
      "##roll": 6229,
      "##ilo": 6230,
      "##ilit": 6231,
      "##ayed": 6232,
      "##ayers": 6233,
      "##asy": 6234,
      "##eling": 6235,
      "##elps": 6236,
      "##isk": 6237,
      "##isan": 6238,
      "##isign": 6239,
      "##eced": 6240,
      "##ecially": 6241,
      "##eton": 6242,
      "##idia": 6243,
      "##urers": 6244,
      "andrew": 6245,
      "##entication": 6246,
      "stab": 6247,
      "stays": 6248,
      "stations": 6249,
      "forest": 6250,
      "##rek": 6251,
      "revel": 6252,
      "##ading": 6253,
      "##irts": 6254,
      "##irut": 6255,
      "##iristan": 6256,
      "##ols": 6257,
      "##ola": 6258,
      "##olph": 6259,
      "##aming": 6260,
      "##ambi": 6261,
      "##utt": 6262,
      "##uty": 6263,
      "##utor": 6264,
      "##vement": 6265,
      "##chrysler": 6266,
      "##owled": 6267,
      "chec": 6268,
      "chess": 6269,
      "chave": 6270,
      "chances": 6271,
      "##rah": 6272,
      "##raib": 6273,
      "##ravel": 6274,
      "##imler": 6275,
      "##imming": 6276,
      "bear": 6277,
      "beirut": 6278,
      "##osh": 6279,
      "##osed": 6280,
      "##osys": 6281,
      "dement": 6282,
      "deuts": 6283,
      "##aka": 6284,
      "##earer": 6285,
      "newest": 6286,
      "##agers": 6287,
      "##ande": 6288,
      "##essary": 6289,
      "shy": 6290,
      "sher": 6291,
      "shake": 6292,
      "shape": 6293,
      "shrek": 6294,
      "shearer": 6295,
      "apart": 6296,
      "thatcher": 6297,
      "##ully": 6298,
      "##ocating": 6299,
      "conc": 6300,
      "constr": 6301,
      "unbeat": 6302,
      "unesco": 6303,
      "sab": 6304,
      "saving": 6305,
      "queen": 6306,
      "quiet": 6307,
      "##aine": 6308,
      "seym": 6309,
      "lew": 6310,
      "lehman": 6311,
      "placed": 6312,
      "itunes": 6313,
      "itanium": 6314,
      "ali": 6315,
      "##emn": 6316,
      "enable": 6317,
      "enjoy": 6318,
      "##umed": 6319,
      "##iant": 6320,
      "hasn": 6321,
      "sue": 6322,
      "suzuk": 6323,
      "upon": 6324,
      "upgrade": 6325,
      "worry": 6326,
      "clorox": 6327,
      "ackn": 6328,
      "wealth": 6329,
      "franch": 6330,
      "overwh": 6331,
      "##artoum": 6332,
      "##inea": 6333,
      "havan": 6334,
      "##ellar": 6335,
      "amster": 6336,
      "##ensions": 6337,
      "expensive": 6338,
      "opin": 6339,
      "opel": 6340,
      "opec": 6341,
      "fires": 6342,
      "income": 6343,
      "reporter": 6344,
      "marks": 6345,
      "marqu": 6346,
      "martha": 6347,
      "##ifts": 6348,
      "##abled": 6349,
      "##abeth": 6350,
      "resist": 6351,
      "intense": 6352,
      "twins": 6353,
      "serve": 6354,
      "serena": 6355,
      "outcome": 6356,
      "##anson": 6357,
      "winless": 6358,
      "sco": 6359,
      "scen": 6360,
      "scam": 6361,
      "scare": 6362,
      "scale": 6363,
      "orland": 6364,
      "blu": 6365,
      "blocks": 6366,
      "bloom": 6367,
      "##onduct": 6368,
      "aren": 6369,
      "arth": 6370,
      "argent": 6371,
      "coverage": 6372,
      "##achi": 6373,
      "##aching": 6374,
      "adam": 6375,
      "adap": 6376,
      "brid": 6377,
      "brings": 6378,
      "brink": 6379,
      "##kee": 6380,
      "##keys": 6381,
      "recruit": 6382,
      "trend": 6383,
      "true": 6384,
      "laur": 6385,
      "##olds": 6386,
      "##ograph": 6387,
      "button": 6388,
      "peru": 6389,
      "perform": 6390,
      "disk": 6391,
      "disaster": 6392,
      "##iction": 6393,
      "teens": 6394,
      "manned": 6395,
      "present": 6396,
      "presented": 6397,
      "preseason": 6398,
      "cancel": 6399,
      "appar": 6400,
      "appear": 6401,
      "appointment": 6402,
      "corr": 6403,
      "##ampton": 6404,
      "##active": 6405,
      "invit": 6406,
      "ellison": 6407,
      "accel": 6408,
      "relatives": 6409,
      "sunni": 6410,
      "##ashing": 6411,
      "##under": 6412,
      "phelps": 6413,
      "securing": 6414,
      "marketw": 6415,
      "milan": 6416,
      "milwau": 6417,
      "warplanes": 6418,
      "defence": 6419,
      "defends": 6420,
      "desper": 6421,
      "soars": 6422,
      "##azi": 6423,
      "##azin": 6424,
      "teaming": 6425,
      "carried": 6426,
      "considers": 6427,
      "joy": 6428,
      "slug": 6429,
      "surger": 6430,
      "assur": 6431,
      "assess": 6432,
      "militia": 6433,
      "quarterf": 6434,
      "caps": 6435,
      "capability": 6436,
      "redmond": 6437,
      "genoc": 6438,
      "regain": 6439,
      "101": 6440,
      "recording": 6441,
      "governments": 6442,
      "norway": 6443,
      "swing": 6444,
      "dealers": 6445,
      "briton": 6446,
      "searches": 6447,
      "producers": 6448,
      "talent": 6449,
      "impress": 6450,
      "barrier": 6451,
      "barrage": 6452,
      "billionair": 6453,
      "billionaire": 6454,
      "ministers": 6455,
      "seasons": 6456,
      "helping": 6457,
      "demonstr": 6458,
      "cola": 6459,
      "guinea": 6460,
      "youth": 6461,
      "smoot": 6462,
      "supplier": 6463,
      "remember": 6464,
      "##ront": 6465,
      "raf": 6466,
      "raids": 6467,
      "##ennial": 6468,
      "confusion": 6469,
      "bigley": 6470,
      "poised": 6471,
      "steady": 6472,
      "courts": 6473,
      "execution": 6474,
      "fallen": 6475,
      "trapped": 6476,
      "inside": 6477,
      "managers": 6478,
      "mobiles": 6479,
      "belarus": 6480,
      "israelis": 6481,
      "antitr": 6482,
      "evil": 6483,
      "##yss": 6484,
      "largely": 6485,
      "missile": 6486,
      "thrown": 6487,
      "throws": 6488,
      "targeted": 6489,
      "targeting": 6490,
      "developers": 6491,
      "industries": 6492,
      "older": 6493,
      "vienna": 6494,
      "depot": 6495,
      "filip": 6496,
      "coaching": 6497,
      "eddie": 6498,
      "streets": 6499,
      "batting": 6500,
      "196": 6501,
      "113": 6502,
      "##gests": 6503,
      "update2": 6504,
      "update1": 6505,
      "hernn": 6506,
      "beaten": 6507,
      "providing": 6508,
      "imm": 6509,
      "immun": 6510,
      "efficient": 6511,
      "verisign": 6512,
      "exploit": 6513,
      "loses": 6514,
      "approve": 6515,
      "approves": 6516,
      "grew": 6517,
      "write": 6518,
      "writing": 6519,
      "camps": 6520,
      "driving": 6521,
      "harring": 6522,
      "virenque": 6523,
      "legend": 6524,
      "legacy": 6525,
      "peacekeep": 6526,
      "draws": 6527,
      "midwest": 6528,
      "syn": 6529,
      "sybase": 6530,
      "acquired": 6531,
      "stronger": 6532,
      "stronghold": 6533,
      "radical": 6534,
      "visits": 6535,
      "followed": 6536,
      "idg": 6537,
      "videot": 6538,
      "actions": 6539,
      "scientist": 6540,
      "scientific": 6541,
      "lowered": 6542,
      "solve": 6543,
      "threatening": 6544,
      "severe": 6545,
      "homers": 6546,
      "speculation": 6547,
      "programme": 6548,
      "insurer": 6549,
      "hardware": 6550,
      "persist": 6551,
      "promising": 6552,
      "install": 6553,
      "instant": 6554,
      "250": 6555,
      "famous": 6556,
      "labs": 6557,
      "labour": 6558,
      "commissioner": 6559,
      "expert": 6560,
      "watching": 6561,
      "foreigners": 6562,
      "safer": 6563,
      "cypr": 6564,
      "equatorial": 6565,
      "demanding": 6566,
      "democrats": 6567,
      "maintain": 6568,
      "wells": 6569,
      "strained": 6570,
      "matchup": 6571,
      "infring": 6572,
      "exchanges": 6573,
      "crashes": 6574,
      "hamid": 6575,
      "humans": 6576,
      "loans": 6577,
      "malicious": 6578,
      "financing": 6579,
      "clears": 6580,
      "investigated": 6581,
      "investigators": 6582,
      "curb": 6583,
      "privat": 6584,
      "privacy": 6585,
      "authentication": 6586,
      "rivalry": 6587,
      "employers": 6588,
      "employee": 6589,
      "speedway": 6590,
      "meth": 6591,
      "mosul": 6592,
      "pilot": 6593,
      "communication": 6594,
      "pollution": 6595,
      "richest": 6596,
      "doubles": 6597,
      "clean": 6598,
      "cuba": 6599,
      "jumps": 6600,
      "trees": 6601,
      "prosp": 6602,
      "fifa": 6603,
      "martial": 6604,
      "multi": 6605,
      "silver": 6606,
      "summit": 6607,
      "##dez": 6608,
      "estim": 6609,
      "estimate": 6610,
      "establ": 6611,
      "factory": 6612,
      "maced": 6613,
      "tourists": 6614,
      "eurozone": 6615,
      "negotiators": 6616,
      "cheese": 6617,
      "respond": 6618,
      "chipset": 6619,
      "qaida": 6620,
      "blockade": 6621,
      "grounds": 6622,
      "hunt": 6623,
      "shoppers": 6624,
      "disputed": 6625,
      "feature": 6626,
      "featuring": 6627,
      "brazilian": 6628,
      "landed": 6629,
      "landing": 6630,
      "bangalore": 6631,
      "civilian": 6632,
      "facing": 6633,
      "happen": 6634,
      "locked": 6635,
      "volume": 6636,
      "suggests": 6637,
      "awarded": 6638,
      "calc": 6639,
      "calpers": 6640,
      "gained": 6641,
      "choose": 6642,
      "captors": 6643,
      "purchased": 6644,
      "purchases": 6645,
      "combined": 6646,
      "conditions": 6647,
      "climbing": 6648,
      "aboard": 6649,
      "professionals": 6650,
      "automakers": 6651,
      "dominated": 6652,
      "laboratory": 6653,
      "casino": 6654,
      "casinos": 6655,
      "gasol": 6656,
      "villanova": 6657,
      "reveal": 6658,
      "connection": 6659,
      "attempts": 6660,
      "travelers": 6661,
      "currency": 6662,
      "escaped": 6663,
      "biotech": 6664,
      "daimler": 6665,
      "initi": 6666,
      "responsibility": 6667,
      "tsb": 6668,
      "clients": 6669,
      "screens": 6670,
      "manufacturers": 6671,
      "knocked": 6672,
      "burns": 6673,
      "bullet": 6674,
      "faith": 6675,
      "fault": 6676,
      "figure": 6677,
      "khat": 6678,
      "khartoum": 6679,
      "occur": 6680,
      "punish": 6681,
      "staying": 6682,
      "clashes": 6683,
      "pleaded": 6684,
      "crowd": 6685,
      "overseas": 6686,
      "rubble": 6687,
      "##fielder": 6688,
      "plunge": 6689,
      "residents": 6690,
      "survival": 6691,
      "charlie": 6692,
      "introduces": 6693,
      "alexander": 6694,
      "learning": 6695,
      "learned": 6696,
      "quitting": 6697,
      "pledges": 6698,
      "cracking": 6699,
      "detainees": 6700,
      "belgium": 6701,
      "subscriber": 6702,
      "momentum": 6703,
      "destr": 6704,
      "integration": 6705,
      "celebrate": 6706,
      "celebrated": 6707,
      "brewer": 6708,
      "madison": 6709,
      "pacers": 6710,
      "spurrier": 6711,
      "lebanon": 6712,
      "mozambi": 6713,
      "described": 6714,
      "carrying": 6715,
      "swedish": 6716,
      "broadcasting": 6717,
      "roadside": 6718,
      "##bridge": 6719,
      "counterfe": 6720,
      "observ": 6721,
      "venezuela": 6722,
      "venezuelans": 6723,
      "bryant": 6724,
      "mystery": 6725,
      "randolph": 6726,
      "vaugh": 6727,
      "reasons": 6728,
      "split": 6729,
      "washed": 6730,
      "brokerage": 6731,
      "feeling": 6732,
      "granted": 6733,
      "astrona": 6734,
      "diplomats": 6735,
      "wmc": 6736,
      "beheaded": 6737,
      "property": 6738,
      "inventories": 6739,
      "slumping": 6740,
      "delivery": 6741,
      "guerrill": 6742,
      "wrongdo": 6743,
      "espn": 6744,
      "especially": 6745,
      "achie": 6746,
      "coca": 6747,
      "pieces": 6748,
      "penalty": 6749,
      "tackle": 6750,
      "tossed": 6751,
      "coalition": 6752,
      "phillips": 6753,
      "website": 6754,
      "removed": 6755,
      "throwing": 6756,
      "refugee": 6757,
      "citizens": 6758,
      "coughlin": 6759,
      "culture": 6760,
      "grants": 6761,
      "pedro": 6762,
      "sgi": 6763,
      "tipped": 6764,
      "degree": 6765,
      "admitted": 6766,
      "floods": 6767,
      "mohammad": 6768,
      "guidant": 6769,
      "trouble": 6770,
      "batteries": 6771,
      "copyright": 6772,
      "connecticut": 6773,
      "temporary": 6774,
      "favorite": 6775,
      "craig": 6776,
      "gibbs": 6777,
      "honda": 6778,
      "nvidia": 6779,
      "nedbank": 6780,
      "rwanda": 6781,
      "roster": 6782,
      "##mandu": 6783,
      "primary": 6784,
      "exclusive": 6785,
      "sponsored": 6786,
      "alternative": 6787,
      "clothing": 6788,
      "database": 6789,
      "telephony": 6790,
      "hammered": 6791,
      "ferrari": 6792,
      "pharmaceutical": 6793,
      "ghraib": 6794,
      "hughes": 6795,
      "nortel": 6796,
      "rossi": 6797,
      "veteran": 6798,
      "##standing": 6799,
      "anthony": 6800,
      "stroke": 6801,
      "proxy": 6802,
      "concessions": 6803,
      "queens": 6804,
      "enforcement": 6805,
      "freddie": 6806,
      "overcame": 6807,
      "serbia": 6808,
      "elsewhere": 6809,
      "cafes": 6810,
      "rebuild": 6811,
      "himalayan": 6812,
      "distraction": 6813,
      "experimental": 6814,
      "friendly": 6815,
      "overshadow": 6816,
      "cavaliers": 6817,
      "dallas": 6818,
      "daily": 6819,
      "fashion": 6820,
      "giambi": 6821,
      "hockey": 6822,
      "hartford": 6823,
      "hokies": 6824,
      "kazaa": 6825,
      "kathmandu": 6826,
      "karmazin": 6827,
      "loyal": 6828,
      "lleyton": 6829,
      "mhz": 6830,
      "meyer": 6831,
      "pfiz": 6832,
      "p2p": 6833,
      "ponting": 6834,
      "rfid": 6835,
      "svetlana": 6836,
      "waziristan": 6837,
      "wysiw": 6838,
      "##owledged": 6839,
      "chavez": 6840,
      "deutsche": 6841,
      "unbeaten": 6842,
      "seymour": 6843,
      "suzuki": 6844,
      "acknowledged": 6845,
      "overwhel": 6846,
      "havana": 6847,
      "amsterdam": 6848,
      "orlando": 6849,
      "marketwatch": 6850,
      "milwaukee": 6851,
      "surgery": 6852,
      "billionaires": 6853,
      "mobilesoft": 6854,
      "antitrust": 6855,
      "hernndez": 6856,
      "harrington": 6857,
      "infringement": 6858,
      "established": 6859,
      "daimlerchrysler": 6860,
      "mozambique": 6861,
      ")--": 6862,
      "44": 6863,
      "650": 6864,
      "7e": 6865,
      "77": 6866,
      "86": 6867,
      "84": 6868,
      "93": 6869,
      "950": 6870,
      "ak": 6871,
      "a9": 6872,
      "aet": 6873,
      "aven": 6874,
      "bug": 6875,
      "bounc": 6876,
      "bio": 6877,
      "bury": 6878,
      "beng": 6879,
      "bounce": 6880,
      "bamb": 6881,
      "cig": 6882,
      "cri": 6883,
      "cry": 6884,
      "cbc": 6885,
      "dc": 6886,
      "ded": 6887,
      "dro": 6888,
      "dill": 6889,
      "dust": 6890,
      "dup": 6891,
      "dix": 6892,
      "dual": 6893,
      "denn": 6894,
      "diam": 6895,
      "ditch": 6896,
      "drew": 6897,
      "dyn": 6898,
      "eur": 6899,
      "eased": 6900,
      "fate": 6901,
      "fant": 6902,
      "furn": 6903,
      "fuj": 6904,
      "flex": 6905,
      "fidel": 6906,
      "fighter": 6907,
      "fully": 6908,
      "gest": 6909,
      "gap": 6910,
      "gays": 6911,
      "hu": 6912,
      "hing": 6913,
      "hamp": 6914,
      "hint": 6915,
      "horn": 6916,
      "hang": 6917,
      "honey": 6918,
      "ia": 6919,
      "icon": 6920,
      "jr": 6921,
      "jb": 6922,
      "jar": 6923,
      "jen": 6924,
      "ke": 6925,
      "kas": 6926,
      "kel": 6927,
      "kum": 6928,
      "kost": 6929,
      "komb": 6930,
      "kenn": 6931,
      "kreme": 6932,
      "kids": 6933,
      "kumble": 6934,
      "lp": 6935,
      "lill": 6936,
      "lies": 6937,
      "lend": 6938,
      "lover": 6939,
      "lyn": 6940,
      "lapt": 6941,
      "mg": 6942,
      "mun": 6943,
      "mall": 6944,
      "mice": 6945,
      "mats": 6946,
      "mfc": 6947,
      "nap": 6948,
      "nav": 6949,
      "nnn": 6950,
      "ol": 6951,
      "oce": 6952,
      "ori": 6953,
      "pd": 6954,
      "pk": 6955,
      "pad": 6956,
      "pest": 6957,
      "pist": 6958,
      "pod": 6959,
      "puts": 6960,
      "pump": 6961,
      "pending": 6962,
      "qlt": 6963,
      "ride": 6964,
      "rah": 6965,
      "rio": 6966,
      "rings": 6967,
      "ronald": 6968,
      "rental": 6969,
      "sed": 6970,
      "sess": 6971,
      "sore": 6972,
      "sial": 6973,
      "sne": 6974,
      "section": 6975,
      "siding": 6976,
      "signing": 6977,
      "tam": 6978,
      "tun": 6979,
      "tend": 6980,
      "tail": 6981,
      "tamp": 6982,
      "tying": 6983,
      "tumb": 6984,
      "tumble": 6985,
      "um": 6986,
      "ug": 6987,
      "u2": 6988,
      "van": 6989,
      "vanc": 6990,
      "vital": 6991,
      "vows": 6992,
      "vision": 6993,
      "vince": 6994,
      "vowed": 6995,
      "wend": 6996,
      "welf": 6997,
      "wreak": 6998,
      "wolf": 6999,
      "wearing": 7000,
      "wipro": 7001,
      "xstr": 7002,
      "yes": 7003,
      "zid": 7004,
      "ziff": 7005,
      "##oin": 7006,
      "##oke": 7007,
      "##uals": 7008,
      "##uana": 7009,
      "##sm": 7010,
      "##sburg": 7011,
      "##ean": 7012,
      "##due": 7013,
      "##dale": 7014,
      "##mu": 7015,
      "##mare": 7016,
      "##mail": 7017,
      "##iate": 7018,
      "##iber": 7019,
      "##iece": 7020,
      "##net": 7021,
      "##nom": 7022,
      "##nants": 7023,
      "##nology": 7024,
      "##aug": 7025,
      "##aware": 7026,
      "##gb": 7027,
      "##gom": 7028,
      "##gus": 7029,
      "##gard": 7030,
      "##gment": 7031,
      "##gart": 7032,
      "##greg": 7033,
      "##ression": 7034,
      "##render": 7035,
      "##cu": 7036,
      "##cers": 7037,
      "##cair": 7038,
      "##crew": 7039,
      "##kok": 7040,
      "##killer": 7041,
      "##hes": 7042,
      "##had": 7043,
      "##hocks": 7044,
      "##pin": 7045,
      "##pen": 7046,
      "##part": 7047,
      "##ports": 7048,
      "##pson": 7049,
      "##yton": 7050,
      "##bar": 7051,
      "##bits": 7052,
      "##buster": 7053,
      "##bara": 7054,
      "##xious": 7055,
      "##voc": 7056,
      "##fa": 7057,
      "##function": 7058,
      "##zer": 7059,
      "##zard": 7060,
      "##wl": 7061,
      "##wol": 7062,
      "##wire": 7063,
      "##water": 7064,
      "##waves": 7065,
      "##35": 7066,
      "##erious": 7067,
      "thr": 7068,
      "thirt": 7069,
      "##inder": 7070,
      "##inces": 7071,
      "##esley": 7072,
      "##esars": 7073,
      "##orth": 7074,
      "##ani": 7075,
      "##anim": 7076,
      "##eder": 7077,
      "##edia": 7078,
      "##edient": 7079,
      "##atile": 7080,
      "##atures": 7081,
      "ingr": 7082,
      "inaug": 7083,
      "##ala": 7084,
      "##alf": 7085,
      "##aling": 7086,
      "toxic": 7087,
      "##ita": 7088,
      "##itas": 7089,
      "##itage": 7090,
      "##iced": 7091,
      "##icular": 7092,
      "##iconduct": 7093,
      "##stop": 7094,
      "##stri": 7095,
      "##state": 7096,
      "##stone": 7097,
      "anger": 7098,
      "##roeder": 7099,
      "##ils": 7100,
      "##aying": 7101,
      "##outs": 7102,
      "##ouver": 7103,
      "##asion": 7104,
      "##elie": 7105,
      "##elco": 7106,
      "##isys": 7107,
      "##eca": 7108,
      "##eted": 7109,
      "##etown": 7110,
      "##ette": 7111,
      "##idal": 7112,
      "##tery": 7113,
      "##urry": 7114,
      "##ente": 7115,
      "stur": 7116,
      "starter": 7117,
      "stages": 7118,
      "stuck": 7119,
      "stalled": 7120,
      "stalls": 7121,
      "stutt": 7122,
      "stelco": 7123,
      "forg": 7124,
      "forth": 7125,
      "forum": 7126,
      "forget": 7127,
      "forcing": 7128,
      "##rees": 7129,
      "rein": 7130,
      "reop": 7131,
      "regr": 7132,
      "reyn": 7133,
      "##iri": 7134,
      "##irac": 7135,
      "##iracy": 7136,
      "##amo": 7137,
      "##amal": 7138,
      "##igue": 7139,
      "##oto": 7140,
      "##oting": 7141,
      "##otation": 7142,
      "##otive": 7143,
      "neal": 7144,
      "neph": 7145,
      "##chan": 7146,
      "##chko": 7147,
      "##owell": 7148,
      "chap": 7149,
      "chiss": 7150,
      "chron": 7151,
      "chirac": 7152,
      "##throp": 7153,
      "##user": 7154,
      "##rastr": 7155,
      "##razen": 7156,
      "##unt": 7157,
      "##unet": 7158,
      "##imum": 7159,
      "##imony": 7160,
      "##imbs": 7161,
      "##immed": 7162,
      "##imately": 7163,
      "beag": 7164,
      "##oses": 7165,
      "probes": 7166,
      "prince": 7167,
      "princ": 7168,
      "printer": 7169,
      "prnews": 7170,
      "##ager": 7171,
      "##agon": 7172,
      "##agre": 7173,
      "##andan": 7174,
      "##essed": 7175,
      "shan": 7176,
      "shel": 7177,
      "sham": 7178,
      "shak": 7179,
      "shots": 7180,
      "shirt": 7181,
      "ape": 7182,
      "whe": 7183,
      "whole": 7184,
      "whales": 7185,
      "##ulator": 7186,
      "##ception": 7187,
      "##cepts": 7188,
      "constitution": 7189,
      "unle": 7190,
      "unix": 7191,
      "uncover": 7192,
      "unanim": 7193,
      "unisys": 7194,
      "afters": 7195,
      "quits": 7196,
      "##opard": 7197,
      "##opher": 7198,
      "exec": 7199,
      "exam": 7200,
      "examp": 7201,
      "exact": 7202,
      "exceed": 7203,
      "examin": 7204,
      "##ained": 7205,
      "spend": 7206,
      "spade": 7207,
      "spots": 7208,
      "##kswag": 7209,
      "leiter": 7210,
      "plug": 7211,
      "plagu": 7212,
      "item": 7213,
      "alb": 7214,
      "alber": 7215,
      "enters": 7216,
      "##allah": 7217,
      "##umm": 7218,
      "compact": 7219,
      "compound": 7220,
      "agents": 7221,
      "offices": 7222,
      "offsh": 7223,
      "suu": 7224,
      "##arding": 7225,
      "##ourcing": 7226,
      "##ivid": 7227,
      "##ivia": 7228,
      "clock": 7229,
      "clush": 7230,
      "clij": 7231,
      "cluster": 7232,
      "clara": 7233,
      "climbs": 7234,
      "weight": 7235,
      "monitor": 7236,
      "monetary": 7237,
      "haven": 7238,
      "haiti": 7239,
      "havoc": 7240,
      "hazard": 7241,
      "##ella": 7242,
      "amr": 7243,
      "amelie": 7244,
      "##iev": 7245,
      "##iever": 7246,
      "##ieva": 7247,
      "export": 7248,
      "exporters": 7249,
      "firing": 7250,
      "incident": 7251,
      "marion": 7252,
      "marsh": 7253,
      "marij": 7254,
      "margin": 7255,
      "mariners": 7256,
      "##ifies": 7257,
      "abd": 7258,
      "abduc": 7259,
      "absa": 7260,
      "resur": 7261,
      "resort": 7262,
      "twx": 7263,
      "quotas": 7264,
      "outlined": 7265,
      "scr": 7266,
      "scots": 7267,
      "scene": 7268,
      "scream": 7269,
      "individ": 7270,
      "goosen": 7271,
      "noise": 7272,
      "interf": 7273,
      "interior": 7274,
      "adel": 7275,
      "brett": 7276,
      "branson": 7277,
      "recla": 7278,
      "recipro": 7279,
      "##ichick": 7280,
      "##ichiro": 7281,
      "##igned": 7282,
      "lah": 7283,
      "lav": 7284,
      "##ocking": 7285,
      "disgr": 7286,
      "disband": 7287,
      "##mph": 7288,
      "##roper": 7289,
      "manny": 7290,
      "##izabeth": 7291,
      "presence": 7292,
      "cann": 7293,
      "canaver": 7294,
      "##itez": 7295,
      "##bery": 7296,
      "##berry": 7297,
      "##berwol": 7298,
      "euros": 7299,
      "##ekom": 7300,
      "##ekster": 7301,
      "##eption": 7302,
      "flock": 7303,
      "flushing": 7304,
      "invasion": 7305,
      "elizabeth": 7306,
      "internal": 7307,
      "mini": 7308,
      "minne": 7309,
      "relig": 7310,
      "relatively": 7311,
      "reliever": 7312,
      "decides": 7313,
      "sungard": 7314,
      "##ullum": 7315,
      "boy": 7316,
      "boot": 7317,
      "banning": 7318,
      "helm": 7319,
      "earned": 7320,
      "annually": 7321,
      "highs": 7322,
      "secured": 7323,
      "polar": 7324,
      "polio": 7325,
      "buzz": 7326,
      "##ancy": 7327,
      "##ancing": 7328,
      "reporting": 7329,
      "warnings": 7330,
      "warming": 7331,
      "defended": 7332,
      "deficits": 7333,
      "serving": 7334,
      "soy": 7335,
      "soared": 7336,
      "liqu": 7337,
      "techs": 7338,
      "carb": 7339,
      "carter": 7340,
      "carries": 7341,
      "settles": 7342,
      "console": 7343,
      "joining": 7344,
      "maur": 7345,
      "sla": 7346,
      "slum": 7347,
      "slams": 7348,
      "slugg": 7349,
      "satis": 7350,
      "##itschko": 7351,
      "meg": 7352,
      "surchar": 7353,
      "surrender": 7354,
      "strand": 7355,
      "stress": 7356,
      "structure": 7357,
      "downgr": 7358,
      "elector": 7359,
      "commit": 7360,
      "percentage": 7361,
      "cape": 7362,
      "wouldn": 7363,
      "federation": 7364,
      "parad": 7365,
      "parents": 7366,
      "parcell": 7367,
      "regarding": 7368,
      "recorded": 7369,
      "##consin": 7370,
      "victories": 7371,
      "workforce": 7372,
      "##ughter": 7373,
      "announcing": 7374,
      "##elson": 7375,
      "swept": 7376,
      "swift": 7377,
      "schroeder": 7378,
      "dealing": 7379,
      "longest": 7380,
      "pale": 7381,
      "##icsson": 7382,
      "delivers": 7383,
      "delray": 7384,
      "delaware": 7385,
      "medium": 7386,
      "nightmare": 7387,
      "runner": 7388,
      "talking": 7389,
      "feels": 7390,
      "febr": 7391,
      "impose": 7392,
      "imposs": 7393,
      "imports": 7394,
      "improper": 7395,
      "businessman": 7396,
      "barber": 7397,
      "posting": 7398,
      "##rang": 7399,
      "billions": 7400,
      "##hips": 7401,
      "tribes": 7402,
      "##phoon": 7403,
      "colts": 7404,
      "awe": 7405,
      "door": 7406,
      "guide": 7407,
      "undergo": 7408,
      "underground": 7409,
      "remnants": 7410,
      "config": 7411,
      "bids": 7412,
      "bombed": 7413,
      "southampton": 7414,
      "finalize": 7415,
      "caesars": 7416,
      "train": 7417,
      "insists": 7418,
      "insisted": 7419,
      "updated": 7420,
      "mobilt": 7421,
      "susilo": 7422,
      "##heim": 7423,
      "belt": 7424,
      "belichick": 7425,
      "grows": 7426,
      "pressured": 7427,
      "opera": 7428,
      "hoped": 7429,
      "autumn": 7430,
      "missiles": 7431,
      "merrill": 7432,
      "begun": 7433,
      "walt": 7434,
      "walter": 7435,
      "walks": 7436,
      "depth": 7437,
      "deport": 7438,
      "telecast": 7439,
      "telekom": 7440,
      "advers": 7441,
      "battered": 7442,
      "hero": 7443,
      "testimony": 7444,
      "angry": 7445,
      "anglo": 7446,
      "provinces": 7447,
      "imac": 7448,
      "movement": 7449,
      "patents": 7450,
      "tickets": 7451,
      "everton": 7452,
      "verge": 7453,
      "veritas": 7454,
      "custody": 7455,
      "##oked": 7456,
      "included": 7457,
      "hole": 7458,
      "holes": 7459,
      "rocky": 7460,
      "deadliest": 7461,
      "hitachi": 7462,
      "greens": 7463,
      "extrad": 7464,
      "senator": 7465,
      "wrest": 7466,
      "writer": 7467,
      "meetings": 7468,
      "drivers": 7469,
      "harsh": 7470,
      "##perform": 7471,
      "charley": 7472,
      "founder": 7473,
      "foundation": 7474,
      "franco": 7475,
      "aviv": 7476,
      "drag": 7477,
      "midnight": 7478,
      "midfielder": 7479,
      "syl": 7480,
      "closes": 7481,
      "rounds": 7482,
      "##clestone": 7483,
      "revamp": 7484,
      "##ushed": 7485,
      "##ushita": 7486,
      "speaker": 7487,
      "leftist": 7488,
      "acquiring": 7489,
      "evening": 7490,
      "powered": 7491,
      "really": 7492,
      "realnetw": 7493,
      "147": 7494,
      "140": 7495,
      "148": 7496,
      "146": 7497,
      "household": 7498,
      "mcken": 7499,
      "visa": 7500,
      "standoff": 7501,
      "shouldn": 7502,
      "brave": 7503,
      "##kingham": 7504,
      "hometown": 7505,
      "portray": 7506,
      "turtles": 7507,
      "boosted": 7508,
      "boosting": 7509,
      "timberwol": 7510,
      "##hamoni": 7511,
      "broadcom": 7512,
      "##media": 7513,
      "scoring": 7514,
      "digit": 7515,
      "harder": 7516,
      "hardly": 7517,
      "ipo": 7518,
      "versus": 7519,
      "versions": 7520,
      "promin": 7521,
      "basque": 7522,
      "bowling": 7523,
      "instrum": 7524,
      "##holders": 7525,
      "processing": 7526,
      "directv": 7527,
      "directly": 7528,
      "watched": 7529,
      "charging": 7530,
      "challenged": 7531,
      "cycl": 7532,
      "creates": 7533,
      "grape": 7534,
      "goodby": 7535,
      "lineback": 7536,
      "builds": 7537,
      "buildings": 7538,
      "demanded": 7539,
      "cambridge": 7540,
      "mainstream": 7541,
      "paid": 7542,
      "designer": 7543,
      "everyone": 7544,
      "everywhere": 7545,
      "valid": 7546,
      "infosys": 7547,
      "infrastr": 7548,
      "engineering": 7549,
      "farm": 7550,
      "farmers": 7551,
      "hamilton": 7552,
      "junior": 7553,
      "junichiro": 7554,
      "malone": 7555,
      "healthy": 7556,
      "healthday": 7557,
      "embr": 7558,
      "embarr": 7559,
      "desktops": 7560,
      "cleared": 7561,
      "clearing": 7562,
      "ski": 7563,
      "skin": 7564,
      "investigate": 7565,
      "astrazen": 7566,
      "curt": 7567,
      "failure": 7568,
      "outsourcing": 7569,
      "##ukat": 7570,
      "competitive": 7571,
      "blasted": 7572,
      "employment": 7573,
      "purpose": 7574,
      "purdue": 7575,
      "snaps": 7576,
      "##offs": 7577,
      "##mingham": 7578,
      "##itten": 7579,
      "opposed": 7580,
      "blackberry": 7581,
      "receiving": 7582,
      "160": 7583,
      "metal": 7584,
      "netsky": 7585,
      "universe": 7586,
      "pitched": 7587,
      "##cycle": 7588,
      "replaces": 7589,
      "christopher": 7590,
      "danny": 7591,
      "frag": 7592,
      "location": 7593,
      "mounted": 7594,
      "tyler": 7595,
      "type": 7596,
      "tyrone": 7597,
      "typhoon": 7598,
      "doubled": 7599,
      "treo": 7600,
      "texans": 7601,
      "remaining": 7602,
      "martin": 7603,
      "multic": 7604,
      "oswal": 7605,
      "regulatory": 7606,
      "detailed": 7607,
      "loud": 7608,
      "pullout": 7609,
      "wounds": 7610,
      "damaged": 7611,
      "eric": 7612,
      "errors": 7613,
      "ericsson": 7614,
      "pitcair": 7615,
      "treaty": 7616,
      "clinic": 7617,
      "motorcycle": 7618,
      "criticizes": 7619,
      "blocked": 7620,
      "blocking": 7621,
      "blockbuster": 7622,
      "boxes": 7623,
      "downloads": 7624,
      "advancing": 7625,
      "hung": 7626,
      "steelcase": 7627,
      "easier": 7628,
      "easily": 7629,
      "jew": 7630,
      "jeopard": 7631,
      "sihamoni": 7632,
      "semis": 7633,
      "semiconduct": 7634,
      "subject": 7635,
      "substant": 7636,
      "subpo": 7637,
      "##iveness": 7638,
      "bangkok": 7639,
      "sooners": 7640,
      "controversy": 7641,
      "republicans": 7642,
      "burt": 7643,
      "buried": 7644,
      "burma": 7645,
      "faced": 7646,
      "facts": 7647,
      "facilities": 7648,
      "hpq": 7649,
      "pirated": 7650,
      "risen": 7651,
      "volatile": 7652,
      "volkswag": 7653,
      "entry": 7654,
      "focusing": 7655,
      "copper": 7656,
      "fixes": 7657,
      "##market": 7658,
      "##while": 7659,
      "towns": 7660,
      "suffering": 7661,
      "declares": 7662,
      "restructure": 7663,
      "denis": 7664,
      "denied": 7665,
      "hugo": 7666,
      "##valley": 7667,
      "expanding": 7668,
      "automaker": 7669,
      "automotive": 7670,
      "identified": 7671,
      "dominate": 7672,
      "discussions": 7673,
      "louisiana": 7674,
      "mills": 7675,
      "villa": 7676,
      "village": 7677,
      "overturn": 7678,
      "knowing": 7679,
      "allegiance": 7680,
      "escal": 7681,
      "escape": 7682,
      "celebration": 7683,
      "biomet": 7684,
      "counts": 7685,
      "robbery": 7686,
      "switchboard": 7687,
      "membership": 7688,
      "response": 7689,
      "bali": 7690,
      "painkiller": 7691,
      "square": 7692,
      "tsv": 7693,
      "tsun": 7694,
      "shaukat": 7695,
      "disappointment": 7696,
      "disappointed": 7697,
      "effective": 7698,
      "effectively": 7699,
      "harmful": 7700,
      "aiming": 7701,
      "gamers": 7702,
      "hillary": 7703,
      "punished": 7704,
      "temper": 7705,
      "practices": 7706,
      "montgom": 7707,
      "arrives": 7708,
      "inspector": 7709,
      "subsidies": 7710,
      "pleads": 7711,
      "nato": 7712,
      "patches": 7713,
      "santana": 7714,
      "##boro": 7715,
      "status": 7716,
      "weighed": 7717,
      "expressed": 7718,
      "slowing": 7719,
      "survived": 7720,
      "awaits": 7721,
      "improvement": 7722,
      "improvements": 7723,
      "grizz": 7724,
      "learn": 7725,
      "pipeline": 7726,
      "raymond": 7727,
      "ramallah": 7728,
      "welcome": 7729,
      "reducing": 7730,
      "earthquakes": 7731,
      "honour": 7732,
      "nobody": 7733,
      "pentagon": 7734,
      "ranks": 7735,
      "prompted": 7736,
      "sequels": 7737,
      "teenage": 7738,
      "evacuation": 7739,
      "personnel": 7740,
      "cybercr": 7741,
      "brewers": 7742,
      "garc": 7743,
      "girls": 7744,
      "kenya": 7745,
      "kenyan": 7746,
      "sandwich": 7747,
      "wondering": 7748,
      "##guard": 7749,
      "priced": 7750,
      "article": 7751,
      "microch": 7752,
      "describe": 7753,
      "assistance": 7754,
      "register": 7755,
      "registry": 7756,
      "registered": 7757,
      "rooms": 7758,
      "broadcasters": 7759,
      "couple": 7760,
      "complaint": 7761,
      "observers": 7762,
      "bolivia": 7763,
      "ecclestone": 7764,
      "ethnic": 7765,
      "matter": 7766,
      "randy": 7767,
      "stunning": 7768,
      "defeats": 7769,
      "meaning": 7770,
      "surface": 7771,
      "feelings": 7772,
      "virtually": 7773,
      "distribution": 7774,
      "distributor": 7775,
      "treasury": 7776,
      "siliconvalley": 7777,
      "suggested": 7778,
      "subsidiaries": 7779,
      "egyptian": 7780,
      "bucks": 7781,
      "buckingham": 7782,
      "felix": 7783,
      "mrk": 7784,
      "savings": 7785,
      "platforms": 7786,
      "submit": 7787,
      "resolve": 7788,
      "liberation": 7789,
      "maoists": 7790,
      "berti": 7791,
      "steroids": 7792,
      "benefit": 7793,
      "benitez": 7794,
      "birth": 7795,
      "birmingham": 7796,
      "cosm": 7797,
      "landsl": 7798,
      "ousts": 7799,
      "penalties": 7800,
      "rumsf": 7801,
      "venus": 7802,
      "wisconsin": 7803,
      "priority": 7804,
      "cooperation": 7805,
      "participate": 7806,
      "feedster": 7807,
      "websites": 7808,
      "rebounds": 7809,
      "mcdonald": 7810,
      "mccullum": 7811,
      "solaris": 7812,
      "domainkeys": 7813,
      "citizen": 7814,
      "architecture": 7815,
      "consolidate": 7816,
      "curse": 7817,
      "fatal": 7818,
      "jammu": 7819,
      "jazz": 7820,
      "jazeer": 7821,
      "muqtada": 7822,
      "necessary": 7823,
      "odyss": 7824,
      "waters": 7825,
      "comfortable": 7826,
      "spectrum": 7827,
      "ambass": 7828,
      "govt": 7829,
      "adopt": 7830,
      "teammate": 7831,
      "teammates": 7832,
      "maximum": 7833,
      "graduation": 7834,
      "publishers": 7835,
      "battled": 7836,
      "legislation": 7837,
      "legislative": 7838,
      "families": 7839,
      "familiar": 7840,
      "collective": 7841,
      "transportation": 7842,
      "occupied": 7843,
      "separatist": 7844,
      "separatists": 7845,
      "vulnerable": 7846,
      "vulnerability": 7847,
      "duo": 7848,
      "dubai": 7849,
      "kyi": 7850,
      "rutan": 7851,
      "incentive": 7852,
      "recommend": 7853,
      "cornerback": 7854,
      "buffalo": 7855,
      "carlos": 7856,
      "surprising": 7857,
      "postponed": 7858,
      "character": 7859,
      "grabbed": 7860,
      "valentine": 7861,
      "daniels": 7862,
      "objections": 7863,
      "transactions": 7864,
      "magnitude": 7865,
      "triggering": 7866,
      "cowboy": 7867,
      "klitschko": 7868,
      "nanotech": 7869,
      "sacred": 7870,
      "waste": 7871,
      "##40c": 7872,
      "unclear": 7873,
      "spirit": 7874,
      "alcohol": 7875,
      "opponent": 7876,
      "indymedia": 7877,
      "pepper": 7878,
      "textile": 7879,
      "conspiracy": 7880,
      "palmone": 7881,
      "drinking": 7882,
      "suspicion": 7883,
      "firewall": 7884,
      "celtic": 7885,
      "organizations": 7886,
      "entreprene": 7887,
      "ethiopia": 7888,
      "astronomers": 7889,
      "neighborhood": 7890,
      "dhaka": 7891,
      "fdx": 7892,
      "ftc": 7893,
      "false": 7894,
      "goran": 7895,
      "gurunet": 7896,
      "jihad": 7897,
      "jacques": 7898,
      "krispy": 7899,
      "lunar": 7900,
      "psv": 7901,
      "society": 7902,
      "vincent": 7903,
      "dementieva": 7904,
      "conclud": 7905,
      "construction": 7906,
      "lewis": 7907,
      "marquee": 7908,
      "bridge": 7909,
      "canceled": 7910,
      "desperate": 7911,
      "genocide": 7912,
      "filipinos": 7913,
      "videotape": 7914,
      "cyprus": 7915,
      "gasoline": 7916,
      "khatami": 7917,
      "observatory": 7918,
      "vaughan": 7919,
      "astronauts": 7920,
      "overshadowed": 7921,
      "pfizer": 7922,
      "overwhelming": 7923,
      "7e7": 7924,
      "bambang": 7925,
      "cigar": 7926,
      "cripp": 7927,
      "drove": 7928,
      "eurekster": 7929,
      "furniture": 7930,
      "gesture": 7931,
      "kumar": 7932,
      "kombat": 7933,
      "lilly": 7934,
      "lynch": 7935,
      "mgm": 7936,
      "matsushita": 7937,
      "podium": 7938,
      "sessions": 7939,
      "tampa": 7940,
      "vancouver": 7941,
      "welfare": 7942,
      "wolfsburg": 7943,
      "xstrata": 7944,
      "zidane": 7945,
      "thirteen": 7946,
      "ingredient": 7947,
      "inaugural": 7948,
      "stuttgart": 7949,
      "reynolds": 7950,
      "nephew": 7951,
      "chapter": 7952,
      "chissano": 7953,
      "beagle": 7954,
      "prnewswire": 7955,
      "aftershocks": 7956,
      "example": 7957,
      "spadea": 7958,
      "offshore": 7959,
      "clijsters": 7960,
      "marijuana": 7961,
      "abducted": 7962,
      "reclaim": 7963,
      "canaveral": 7964,
      "minneapolis": 7965,
      "sluggish": 7966,
      "surcharge": 7967,
      "parcells": 7968,
      "february": 7969,
      "mobiltel": 7970,
      "realnetworks": 7971,
      "mckenzie": 7972,
      "timberwolves": 7973,
      "instruments": 7974,
      "goodbye": 7975,
      "linebacker": 7976,
      "embarrass": 7977,
      "astrazeneca": 7978,
      "pitcairn": 7979,
      "semiconductor": 7980,
      "volkswagen": 7981,
      "grizzlies": 7982,
      "cybercrime": 7983,
      "rumsfeld": 7984,
      "jazeera": 7985,
      "odyssey": 7986,
      "\".": 7987,
      "08": 7988,
      "1b": 7989,
      "1st": 7990,
      "166": 7991,
      "72": 7992,
      "76": 7993,
      "95": 7994,
      "92": 7995,
      "900": 7996,
      ";:": 7997,
      "\\\"": 7998,
      "aj": 7999
    }
  }
}